{
  "version": "1.0",
  "truncation": null,
  "padding": null,
  "added_tokens": [],
  "normalizer": null,
  "pre_tokenizer": null,
  "post_processor": null,
  "decoder": null,
  "model": {
    "type": "BPE",
    "dropout": null,
    "unk_token": null,
    "continuing_subword_prefix": null,
    "end_of_word_suffix": null,
    "fuse_unk": false,
    "byte_fallback": false,
    "ignore_merges": false,
    "vocab": {
      "!": 0,
      "\"": 1,
      "#": 2,
      "$": 3,
      "%": 4,
      "&": 5,
      "'": 6,
      "(": 7,
      ")": 8,
      "*": 9,
      "+": 10,
      ",": 11,
      "-": 12,
      ".": 13,
      "/": 14,
      "0": 15,
      "1": 16,
      "2": 17,
      "3": 18,
      "4": 19,
      "5": 20,
      "6": 21,
      "7": 22,
      "8": 23,
      "9": 24,
      ":": 25,
      ";": 26,
      "<": 27,
      "=": 28,
      ">": 29,
      "?": 30,
      "@": 31,
      "[": 32,
      "]": 33,
      "^": 34,
      "_": 35,
      "`": 36,
      "a": 37,
      "b": 38,
      "c": 39,
      "d": 40,
      "e": 41,
      "f": 42,
      "g": 43,
      "h": 44,
      "i": 45,
      "j": 46,
      "k": 47,
      "l": 48,
      "m": 49,
      "n": 50,
      "o": 51,
      "p": 52,
      "q": 53,
      "r": 54,
      "s": 55,
      "t": 56,
      "u": 57,
      "v": 58,
      "w": 59,
      "x": 60,
      "y": 61,
      "z": 62,
      "~": 63,
      "¡": 64,
      "¢": 65,
      "£": 66,
      "¤": 67,
      "¥": 68,
      "¦": 69,
      "§": 70,
      "¨": 71,
      "©": 72,
      "ª": 73,
      "«": 74,
      "¬": 75,
      "®": 76,
      "¯": 77,
      "°": 78,
      "±": 79,
      "²": 80,
      "³": 81,
      "´": 82,
      "µ": 83,
      "¶": 84,
      "·": 85,
      "¸": 86,
      "¹": 87,
      "º": 88,
      "»": 89,
      "¼": 90,
      "½": 91,
      "¾": 92,
      "¿": 93,
      "Â": 94,
      "Ã": 95,
      "Ä": 96,
      "Å": 97,
      "Æ": 98,
      "Ç": 99,
      "È": 100,
      "É": 101,
      "Ê": 102,
      "Ë": 103,
      "Ì": 104,
      "Î": 105,
      "Ï": 106,
      "Ð": 107,
      "Ñ": 108,
      "Õ": 109,
      "×": 110,
      "Ø": 111,
      "Ù": 112,
      "Ú": 113,
      "Û": 114,
      "à": 115,
      "á": 116,
      "â": 117,
      "ã": 118,
      "ä": 119,
      "å": 120,
      "æ": 121,
      "ç": 122,
      "è": 123,
      "é": 124,
      "ê": 125,
      "ë": 126,
      "ì": 127,
      "í": 128,
      "ï": 129,
      "ð": 130,
      "Ġ": 131,
      "Ģ": 132,
      "ģ": 133,
      "Ĥ": 134,
      "ĥ": 135,
      "Ħ": 136,
      "ħ": 137,
      "Ĩ": 138,
      "ĩ": 139,
      "Ī": 140,
      "ī": 141,
      "Ĭ": 142,
      "ĭ": 143,
      "Į": 144,
      "į": 145,
      "İ": 146,
      "ı": 147,
      "Ĳ": 148,
      "ĳ": 149,
      "Ĵ": 150,
      "ĵ": 151,
      "Ķ": 152,
      "ķ": 153,
      "ĸ": 154,
      "Ĺ": 155,
      "ĺ": 156,
      "Ļ": 157,
      "ļ": 158,
      "Ľ": 159,
      "ľ": 160,
      "Ŀ": 161,
      "ŀ": 162,
      "Ł": 163,
      "ł": 164,
      "Ń": 165,
      "à¤": 166,
      "ãģ": 167,
      "Ġà¤": 168,
      "à¥": 169,
      "eĠ": 170,
      "ãĤ": 171,
      "Ø§": 172,
      "ãĥ": 173,
      "ĠÐ": 174,
      "ÙĦ": 175,
      "Ð¾": 176,
      "Ġì": 177,
      "ãĢ": 178,
      "Ðµ": 179,
      "à¤¾": 180,
      "en": 181,
      "er": 182,
      "Ð°": 183,
      ",Ġ": 184,
      "sĠ": 185,
      "ÙĬ": 186,
      "ĠØ": 187,
      "Ð¸": 188,
      "ÑĤ": 189,
      ".Ġ": 190,
      "Ñģ": 191,
      "Ùħ": 192,
      "Ø§ÙĦ": 193,
      "ÑĢ": 194,
      "Ð½": 195,
      "ï¼": 196,
      "à¤°": 197,
      "in": 198,
      "à¥į": 199,
      "ìĿ": 200,
      "à¥ĩ": 201,
      "on": 202,
      "ÙĨ": 203,
      "ä¸": 204,
      "tĠ": 205,
      "an": 206,
      "aĠ": 207,
      "Ġë": 208,
      "Ð¾Ð": 209,
      "ÙĪ": 210,
      "ĠØ§ÙĦ": 211,
      "oĠ": 212,
      "à¥įà¤": 213,
      "à¤¾à¤": 214,
      "ch": 215,
      "ãĢĤ": 216,
      "ãĢģ": 217,
      "Ø±": 218,
      "à¤¿": 219,
      "Ġà¤ķ": 220,
      "iĠ": 221,
      "ï¼Į": 222,
      "ëĭ": 223,
      "Øª": 224,
      "st": 225,
      "à¥Ģ": 226,
      "à¤Ĥ": 227,
      "al": 228,
      "Ð»": 229,
      "íķ": 230,
      "ar": 231,
      "or": 232,
      "à¤¿à¤": 233,
      "un": 234,
      "Ø©": 235,
      "ãģ®": 236,
      "at": 237,
      "Ø¯": 238,
      "äº": 239,
      "dĠ": 240,
      "re": 241,
      "çļ": 242,
      "à¥ĩĠà¤": 243,
      "çļĦ": 244,
      "Ġê": 245,
      "enĠ": 246,
      "el": 247,
      "Ùģ": 248,
      "Ñĥ": 249,
      "erĠ": 250,
      "Ðº": 251,
      "th": 252,
      "æľ": 253,
      "ou": 254,
      "Ã©": 255,
      "Ñı": 256,
      "Ùĥ": 257,
      "Ø¨": 258,
      "Ø¹": 259,
      "åľ": 260,
      "Ġà¤¹": 261,
      "Ùĩ": 262,
      "à¥ĭ": 263,
      "ÙĤ": 264,
      "à¥Ī": 265,
      "à¤¨": 266,
      "ëĭ¤": 267,
      "ìĹ": 268,
      "Ð²": 269,
      "Ø³": 270,
      "à¤ķ": 271,
      "åı": 272,
      "esĠ": 273,
      "ä»": 274,
      "Ñĭ": 275,
      "it": 276,
      "il": 277,
      "ãģ«": 278,
      "Ġd": 279,
      "ĠÐ²": 280,
      "åħ": 281,
      "Ð¼": 282,
      "es": 283,
      "åĪ": 284,
      "Ġà¤¸": 285,
      "ãģ¯": 286,
      "å¤": 287,
      "ãĥ¼": 288,
      "ãģĹ": 289,
      "ĠÐ¿": 290,
      "is": 291,
      "à¤¤": 292,
      "à¤¹": 293,
      "ic": 294,
      "au": 295,
      "om": 296,
      "ãĤĭ": 297,
      "eĠd": 298,
      "ĠÙħ": 299,
      "å®": 300,
      "ãģĦ": 301,
      "Ð´": 302,
      "ÑĮ": 303,
      "ä½": 304,
      "ìĿ´": 305,
      "ion": 306,
      "å¹": 307,
      "ÑģÑĤ": 308,
      "ol": 309,
      "ãģŁ": 310,
      "à¤¸": 311,
      "ØŃ": 312,
      "ëĬ": 313,
      "qu": 314,
      "Ġà¤®": 315,
      "Ġs": 316,
      "ê³": 317,
      "ãģ¦": 318,
      "Ġí": 319,
      "ur": 320,
      "ãģ§": 321,
      "à¤®": 322,
      "laĠ": 323,
      "ëĬĶ": 324,
      "ent": 325,
      "em": 326,
      "ãĥ³": 327,
      "åĲ": 328,
      "Ñĩ": 329,
      "à¥ģ": 330,
      "ãģ¨": 331,
      "ìĹĲ": 332,
      "à¥¤": 333,
      "æĪ": 334,
      "ĠÙĪ": 335,
      "ìĿĺ": 336,
      "Ġ1": 337,
      "åŃ": 338,
      "ØĮ": 339,
      "çĶ": 340,
      "ãģĮ": 341,
      "ãĤĴ": 342,
      "ìĦ": 343,
      "ĠØ§ÙĦØ": 344,
      "æĸ": 345,
      "ĠÑģ": 346,
      "ĠÐ½": 347,
      "âĢ": 348,
      "Īëĭ¤": 349,
      "Ġà¤ª": 350,
      "tr": 351,
      "pr": 352,
      "Ġà¤¹à¥Ī": 353,
      "åĽ": 354,
      "ĠØ£": 355,
      "à¥įà¤°": 356,
      "ÐµÐ½": 357,
      "leĠ": 358,
      "ë¡": 359,
      "ìĬ": 360,
      "íķĺ": 361,
      "Ġc": 362,
      "Ø§Ø": 363,
      "ê°": 364,
      "ìł": 365,
      "as": 366,
      "am": 367,
      "æĺ": 368,
      "ich": 369,
      "Ð¿": 370,
      "ÑĢÐ°": 371,
      "à¤ª": 372,
      "à¤²": 373,
      "ĠìĿ": 374,
      "à¤¾Ġà¤": 375,
      "Ġìŀ": 376,
      "theĠ": 377,
      "et": 378,
      "ir": 379,
      "00": 380,
      "å¹´": 381,
      "ãģ¾": 382,
      "Ñħ": 383,
      "ãģĻ": 384,
      "ãģª": 385,
      "ĠØ¨": 386,
      "ä¸Ń": 387,
      "di": 388,
      "æĹ": 389,
      "Ð¾Ð²": 390,
      "Ġp": 391,
      "à¥ĢĠà¤": 392,
      "ë¡ľ": 393,
      "åľ¨": 394,
      "ìŀ": 395,
      "ìĿĦ": 396,
      "im": 397,
      "ĠÐ¾": 398,
      "å°": 399,
      "ver": 400,
      "åį": 401,
      "ut": 402,
      "ĠÐº": 403,
      "ĠÙģ": 404,
      "à¥ĩà¤Ĥ": 405,
      "l'": 406,
      "ãĤĮ": 407,
      "ì§": 408,
      "Ġm": 409,
      "ĠÐ¸": 410,
      "è¿": 411,
      "ë¦": 412,
      "Ð·": 413,
      "ab": 414,
      "si": 415,
      "éĢ": 416,
      "å¾": 417,
      "ac": 418,
      "à¤°Ġà¤": 419,
      "ap": 420,
      "åĮ": 421,
      "ë¥": 422,
      "inĠ": 423,
      "ãĥ¼ãĥ": 424,
      "ãĤ¹": 425,
      "gĠ": 426,
      "Ø§ÙĨ": 427,
      "ÙĬØ©": 428,
      "e,Ġ": 429,
      "ä¸Ģ": 430,
      "à¥Ĥ": 431,
      "è¡": 432,
      "à¤Ĺ": 433,
      "Ð¹": 434,
      "Ã¨": 435,
      "ĠØª": 436,
      "ï¼Ī": 437,
      "ÑĢÐµ": 438,
      "ëĭĪëĭ¤": 439,
      "deĠ": 440,
      "ìĭ": 441,
      "ï¼ī": 442,
      "ĠØ¹": 443,
      "à¥įà¤¯": 444,
      "ìķ": 445,
      "isĠ": 446,
      "ÑĤÐ¾": 447,
      "Ġìł": 448,
      "Ùī": 449,
      "ĠÙĦ": 450,
      ",Ġà¤": 451,
      "¸°": 452,
      "à¤¯": 453,
      "ê³ł": 454,
      "yĠ": 455,
      "su": 456,
      "äºº": 457,
      "ëı": 458,
      "íķľ": 459,
      "æĶ": 460,
      "ĠØ§ÙĦÙħ": 461,
      "Ø¬": 462,
      "ag": 463,
      "å¸": 464,
      "ìľ": 465,
      "ê²": 466,
      "ãģĵ": 467,
      "ĠÐ¼": 468,
      "ÑĪ": 469,
      "à¤¾à¤°": 470,
      "Ð¾Ð»": 471,
      "and": 472,
      "æ°": 473,
      "av": 474,
      "of": 475,
      "ãĤī": 476,
      "Ġ-": 477,
      "19": 478,
      "toĠ": 479,
      "Ñİ": 480,
      "Ġà¤ķà¥ĩĠà¤": 481,
      "con": 482,
      "ê°Ģ": 483,
      "ri": 484,
      "se": 485,
      "ĠÐ´": 486,
      "ä¹": 487,
      "à¤µ": 488,
      "asĠ": 489,
      "Ð³": 490,
      "ĠÐ½Ð°": 491,
      "Ð±": 492,
      "ä¼": 493,
      "åĽ½": 494,
      "ë¦¬": 495,
      "å·": 496,
      "ìĿĢ": 497,
      "ãģĤ": 498,
      "Ø·": 499,
      "le": 500,
      "åĬ": 501,
      "Ġ2": 502,
      "åº": 503,
      "éĩ": 504,
      "ÑĢÐ¸": 505,
      "èª": 506,
      "ãģĭ": 507,
      "æŃ": 508,
      "ÑĤÐµ": 509,
      "ĠÙģÙĬ": 510,
      "ãĤ¤": 511,
      "Ð¾Ð´": 512,
      "ĮĢ": 513,
      "å¤§": 514,
      "ìļ": 515,
      "à¥¤Ġà¤": 516,
      "êµ": 517,
      "æĺ¯": 518,
      "æķ": 519,
      "Ġìķ": 520,
      "Ãł": 521,
      "os": 522,
      "ÑģÐº": 523,
      "Ã¼": 524,
      "ãĤ¢": 525,
      "ÑĢÐ¾": 526,
      "ìĬµ": 527,
      "andĠ": 528,
      "li": 529,
      "Ð°Ð½": 530,
      "ìĦľ": 531,
      "Ø§Øª": 532,
      "..": 533,
      "äºĨ": 534,
      "à¤¾à¤¨": 535,
      "op": 536,
      "Ĥ¬": 537,
      "Ð»Ð¸": 538,
      "ëĵ": 539,
      "çī": 540,
      "Īĺ": 541,
      "ãĤĬ": 542,
      "à¤¦": 543,
      "ì§Ģ": 544,
      "æĪĳ": 545,
      "be": 546,
      "æľī": 547,
      "ĠìĿ´": 548,
      "etĠ": 549,
      "ĠÙħÙĨ": 550,
      "ç§": 551,
      "ë¥¼": 552,
      "ãĥ«": 553,
      "ÙĬÙĨ": 554,
      "ê¸°": 555,
      "ãĥª": 556,
      "onĠ": 557,
      "ãĥ©": 558,
      "ein": 559,
      "è§": 560,
      "Ġà¤®à¥ĩà¤Ĥ": 561,
      "ãĥĪ": 562,
      "Ġê°": 563,
      "ãģ¦ãģĦ": 564,
      "entĠ": 565,
      "å±": 566,
      "ãģ£": 567,
      "æĿ": 568,
      "ãĤĤ": 569,
      "itĠ": 570,
      "è¦": 571,
      "éģ": 572,
      "Ð¶": 573,
      "ÙĦÙī": 574,
      "eĠs": 575,
      "åľ°": 576,
      "ç»": 577,
      "åĴ": 578,
      "è¨": 579,
      "ÑĨ": 580,
      "åŃ¦": 581,
      "ìĬµëĭĪëĭ¤": 582,
      "ig": 583,
      "åĴĮ": 584,
      "ev": 585,
      "Ġë°": 586,
      "å¼": 587,
      "åĨ": 588,
      "à¥ģà¤": 589,
      "ìľ¼": 590,
      "Ð¾Ð¼": 591,
      "ãĥĥ": 592,
      "diĠ": 593,
      "ãĥ»": 594,
      "çĽ": 595,
      "ot": 596,
      "edĠ": 597,
      "ãģĹãģŁ": 598,
      "Ġg": 599,
      "ĠìĹ": 600,
      "ÐµÑĤ": 601,
      "·¸": 602,
      "à¤Ł": 603,
      "ìĸ": 604,
      "à¤°à¥įà¤": 605,
      "æī": 606,
      "èĩ": 607,
      "Ð½Ð¾": 608,
      "å½": 609,
      "ĠØ¥": 610,
      "èĢ": 611,
      "éĻ": 612,
      "Ø§Ùħ": 613,
      "æµ": 614,
      "éĥ": 615,
      "Ø´": 616,
      "Øµ": 617,
      "ä¸Ĭ": 618,
      "Ùĭ": 619,
      "Ġh": 620,
      "à¤¿à¤¯": 621,
      "Ð½Ñĭ": 622,
      "à¤¬": 623,
      "ousĠ": 624,
      "ëıĦ": 625,
      "um": 626,
      "Ø¶": 627,
      "ĠÐ±": 628,
      "ëł": 629,
      "å¥": 630,
      "Ø§Ø±": 631,
      "ter": 632,
      "ãĤĭãĢĤ": 633,
      "Ø£": 634,
      "com": 635,
      "ë©": 636,
      "Ã¤": 637,
      "åĩ": 638,
      "åĪĨ": 639,
      "Ġb": 640,
      "undĠ": 641,
      "Ġf": 642,
      "end": 643,
      "ãģķ": 644,
      "ation": 645,
      "og": 646,
      "Ð¾Ð¹": 647,
      "åĪ°": 648,
      "Ġê²": 649,
      "è¡Į": 650,
      "ãĤ¯": 651,
      "eĠp": 652,
      "Ð¾Ð³": 653,
      "æ²": 654,
      "vi": 655,
      "ec": 656,
      "sch": 657,
      "en,Ġ": 658,
      "our": 659,
      "ÐµÑĢ": 660,
      "estĠ": 661,
      "èĪ": 662,
      "ä»¥": 663,
      "ìĽ": 664,
      "ant": 665,
      "Ð¾Ð½": 666,
      "e.Ġ": 667,
      "ĠÙĩ": 668,
      "ĠÙĬ": 669,
      "æ³": 670,
      "æĻ": 671,
      "éĿ": 672,
      "ëĤ": 673,
      "è®": 674,
      "lesĠ": 675,
      "à¤¡": 676,
      "ãģĨ": 677,
      "ung": 678,
      "éĸ": 679,
      "ë§": 680,
      "à¥ĭà¤Ĥ": 681,
      "ëħ": 682,
      "Ø®": 683,
      "çľ": 684,
      "à¥Īà¤Ĥ": 685,
      "ĠÐ³": 686,
      "Âł": 687,
      "20": 688,
      "à¤¿à¤ķ": 689,
      "ĠìŀĪ": 690,
      "ad": 691,
      "Ġn": 692,
      "å¯": 693,
      "åī": 694,
      "o,Ġ": 695,
      "for": 696,
      "ĠÐ·": 697,
      "us": 698,
      "Ġ19": 699,
      "æĢ": 700,
      "ÐµÐ½Ð¸": 701,
      "Ġw": 702,
      "çĲ": 703,
      "ë¶": 704,
      "ä½ľ": 705,
      "ingĠ": 706,
      "Ġà¤ħ": 707,
      "Ñį": 708,
      "eĠm": 709,
      "ãĢĮ": 710,
      "ìĬ¤": 711,
      "ãĢį": 712,
      "Ø³Øª": 713,
      "ëĭ¤.": 714,
      "ĠìĦ": 715,
      "Ġì§": 716,
      "íĸ": 717,
      "Ġà¤°": 718,
      "Ð»ÑĮ": 719,
      "ä¿": 720,
      "ci": 721,
      "ìĿ¸": 722,
      "à¤¼": 723,
      "ìĸ´": 724,
      "Ġìĭ": 725,
      "ĠÙĥ": 726,
      "Ø²": 727,
      "íķ´": 728,
      "à¤¾Ġà¤¹à¥Ī": 729,
      "est": 730,
      "£¼": 731,
      "æĹ¥": 732,
      "ìĹĲìĦľ": 733,
      "ell": 734,
      "Ø°": 735,
      "en.Ġ": 736,
      "à¥įà¤¤": 737,
      "ãģı": 738,
      "åĳ": 739,
      "ĠØ³": 740,
      "od": 741,
      "à¤ļ": 742,
      "ÐµÐ¼": 743,
      "iv": 744,
      "par": 745,
      "ãĤ·": 746,
      "all": 747,
      "ãĤĪ": 748,
      "ìĺ": 749,
      "ĠëĮĢ": 750,
      "ä¸º": 751,
      "Ð»Ð°": 752,
      "ëĲ": 753,
      "éĽ": 754,
      "ÙĪÙĦ": 755,
      "ãĥĹ": 756,
      "çĻ": 757,
      "ãģĿ": 758,
      "è§£": 759,
      "ed": 760,
      "à¤¶": 761,
      "èªŀ": 762,
      "ãĤ¿": 763,
      "æİ": 764,
      "ĠØ§ÙĦØ£": 765,
      "atĠ": 766,
      "çµ": 767,
      "çİ": 768,
      "Ġt": 769,
      "Ġà¤¦": 770,
      "è¯": 771,
      "ist": 772,
      "Ġà¤ķà¥ĭ": 773,
      "åŁ": 774,
      "Ŀ¼": 775,
      "ÙĭØ§": 776,
      "ãĥķ": 777,
      "æ¸": 778,
      "ÑĤÐ°": 779,
      "à¥įà¤Ł": 780,
      "ĠØ¬": 781,
      "ieĠ": 782,
      "çĤ": 783,
      "à¤ľ": 784,
      "Ġà¤¬": 785,
      "Ġà¤µ": 786,
      "âĢĶ": 787,
      "pl": 788,
      "ìľ¼ë¡ľ": 789,
      "ÙĨØ§": 790,
      "åİ": 791,
      "ë³": 792,
      "Ð½Ð¸": 793,
      "hr": 794,
      "æ°ĳ": 795,
      "åľĭ": 796,
      "ìĭľ": 797,
      "ãģĻãĢĤ": 798,
      "çĶ¨": 799,
      "ĥģ": 800,
      "ç´": 801,
      "ĠØŃ": 802,
      "Ġà¤ªà¥įà¤°": 803,
      "ofĠ": 804,
      "æĮ": 805,
      "ass": 806,
      "eĠn": 807,
      "æ±": 808,
      "ë¯": 809,
      "ÙĬØ±": 810,
      "çŃ": 811,
      "ê³¼": 812,
      "íĻ": 813,
      "ë°": 814,
      "del": 815,
      "ä¸»": 816,
      "ĠÐ°": 817,
      "Ġìľ": 818,
      "Ġà¤¨": 819,
      "ìĿ¼": 820,
      "Ġëĭ": 821,
      "ul": 822,
      "ÃłĠ": 823,
      "æĪĲ": 824,
      "ëĿ¼": 825,
      "ĠØ§ÙĦØª": 826,
      "çĶŁ": 827,
      "èĥ": 828,
      "ĠìĪĺ": 829,
      "ÙĩØ§": 830,
      "a,Ġ": 831,
      "Ġà¤¸à¥ĩĠà¤": 832,
      "ëħĦ": 833,
      "ÑĦ": 834,
      "çĲĨ": 835,
      "Ð½Ð°": 836,
      "êµŃ": 837,
      "ÙĪÙĨ": 838,
      "åĭ": 839,
      "ĠÑĥ": 840,
      "çº": 841,
      "ä»¬": 842,
      "å¿": 843,
      "Ġë§": 844,
      "ÑĤÐ¸": 845,
      "oc": 846,
      "é«": 847,
      "Ø«": 848,
      "ë¬": 849,
      "eg": 850,
      "ãĥ³ãĥ": 851,
      "æĸ¹": 852,
      "à¤¿à¤¤": 853,
      "ĠÙĤ": 854,
      "eu": 855,
      "ä¼ļ": 856,
      "ord": 857,
      "æĸĩ": 858,
      "ra": 859,
      "ÑģÑĤÐ²": 860,
      "åĩº": 861,
      "Ġê³": 862,
      "o.Ġ": 863,
      "istĠ": 864,
      "ä»£": 865,
      "ĠÙĪØ§ÙĦ": 866,
      "ä¾": 867,
      "Ĩà¤ª": 868,
      "cheĠ": 869,
      "ãģĹãģ¦": 870,
      "ãĤ¸": 871,
      "ê·¸": 872,
      "æľĪ": 873,
      "ç«": 874,
      "çī©": 875,
      "ä¸į": 876,
      "èĩª": 877,
      "à¤Ń": 878,
      "íĺ": 879,
      "ãĥŃ": 880,
      "ç¤": 881,
      "çķ": 882,
      "ìĤ¬": 883,
      "ìŀĲ": 884,
      "Ġà¤ľ": 885,
      "Ð¾ÑĢ": 886,
      "¯à¤¹": 887,
      "é¡": 888,
      "ãĤ«": 889,
      "æĬ": 890,
      "ÑĤÑĮ": 891,
      "Ġìļ": 892,
      "à¥įà¤µ": 893,
      "à¥ĩĠà¤¹": 894,
      "íĬ": 895,
      "ĠØ¹ÙĦÙī": 896,
      "derĠ": 897,
      "Ġ3": 898,
      "åĵ": 899,
      "teĠ": 900,
      "æł": 901,
      "ber": 902,
      "ãģķãĤĮ": 903,
      "ow": 904,
      "Ð¾Ñģ": 905,
      "à¤¾à¤¤": 906,
      "ì¹": 907,
      "åĮĸ": 908,
      "str": 909,
      "oll": 910,
      "ëĵ¤": 911,
      "éĥ¨": 912,
      "ing": 913,
      "æľ¬": 914,
      "ãĥ¬": 915,
      "Ã¶": 916,
      "Ñī": 917,
      "per": 918,
      "Øº": 919,
      "ãĤ³": 920,
      "ann": 921,
      "ÑģÑı": 922,
      "Ł³": 923,
      "ÙĬØ¯": 924,
      "zion": 925,
      "s,Ġ": 926,
      "ãģ¯ãĢģ": 927,
      "ĠÙĨ": 928,
      "ĠëĤ": 929,
      "å¥½": 930,
      "æĽ": 931,
      "íĦ": 932,
      "ãģĪ": 933,
      "ĠØ£ÙĨ": 934,
      "Ġë³": 935,
      "æĶ¿": 936,
      "ãģĻãĤĭ": 937,
      "ãģį": 938,
      "Ġà¤Ĺ": 939,
      "ëĤĺ": 940,
      "Ġl": 941,
      "ëŁ": 942,
      "à¤¾à¤¸": 943,
      "å¤ļ": 944,
      "ìĪĺ": 945,
      "ach": 946,
      "ov": 947,
      "Ð¾Ð³Ð¾": 948,
      "ÙĪØ±": 949,
      "å®¶": 950,
      "ç©": 951,
      "ay": 952,
      "è¾": 953,
      "Ð´Ð°": 954,
      "à¤¾à¤²": 955,
      "Ø§Ø¦": 956,
      "reĠ": 957,
      "ãģ¡": 958,
      "ãģĹãģ¾": 959,
      "Ġv": 960,
      "ç¾": 961,
      "ĩà¤¸": 962,
      "ĠìĤ¬": 963,
      "æ´": 964,
      "ìĻ": 965,
      "åŃ¸": 966,
      "ì£¼": 967,
      "ric": 968,
      "antĠ": 969,
      "ëĮĢ": 970,
      "Ġà¤Ķ": 971,
      "Ġê²ĥ": 972,
      "ç¨": 973,
      "æ³ķ": 974,
      "à¤¿à¤¨": 975,
      "å®ļ": 976,
      "äºĨè§£": 977,
      "...Ġ": 978,
      "ob": 979,
      "Ø§Ø¡": 980,
      "ex": 981,
      "íĬ¸": 982,
      "èµ": 983,
      "à¤§": 984,
      "åº¦": 985,
      "ĠØ§ÙĦØ¹": 986,
      "ãģ©": 987,
      "wir": 988,
      "ess": 989,
      "ĠÐ½Ðµ": 990,
      "res": 991,
      "dieĠ": 992,
      "ëª": 993,
      "att": 994,
      "ãģĹãģŁãĢĤ": 995,
      "eĠc": 996,
      "hi": 997,
      "ìĨ": 998,
      "¹Ħ": 999,
      "æ¯": 1000,
      "ÑĨÐ¸": 1001,
      "ĠÐºÐ°": 1002,
      "à¥įà¤·": 1003,
      "Ġìĺ": 1004,
      "zu": 1005,
      "atoĠ": 1006,
      "ÐºÐ°": 1007,
      "ìłķ": 1008,
      "Ø§Ø¯": 1009,
      "ff": 1010,
      "åĢ": 1011,
      "Ġà¤²": 1012,
      "Ġëª": 1013,
      "Ġà¤ķà¥ĢĠà¤": 1014,
      "æŀ": 1015,
      "Ġ4": 1016,
      "ìłģ": 1017,
      "é«ĺ": 1018,
      "rÃ©": 1019,
      "å§": 1020,
      ";Ġ": 1021,
      "ÙĪÙħ": 1022,
      "éĢļ": 1023,
      "lu": 1024,
      "ÑĩÐ°": 1025,
      "çŃī": 1026,
      "ĠÐ·Ð°": 1027,
      "ÑĩÐµ": 1028,
      "à¤£": 1029,
      "æĻĤ": 1030,
      "è¦ģ": 1031,
      "íķĻ": 1032,
      "de": 1033,
      "Ð¼Ð¸": 1034,
      "èĥ½": 1035,
      "Ð»Ðµ": 1036,
      "ĠÐ²Ñĭ": 1037,
      "Ġcom": 1038,
      "æ¥": 1039,
      "æŃ£": 1040,
      "ãģ§ãģĤ": 1041,
      "11": 1042,
      "ìķĦ": 1043,
      "d'": 1044,
      "éĹ": 1045,
      "åħ¨": 1046,
      "ä½ł": 1047,
      "Ð²Ð°": 1048,
      "ëĲĺ": 1049,
      "Ġ-Ġ": 1050,
      "æµ·": 1051,
      "ain": 1052,
      "à¥Ģà¤ķ": 1053,
      "Ġà¤ķà¤°": 1054,
      "ÑĢÑĥ": 1055,
      "ØĮĠÙĪ": 1056,
      "ä¸ĭ": 1057,
      "è¥": 1058,
      "stand": 1059,
      "gi": 1060,
      "è¿Ļ": 1061,
      "åı¯": 1062,
      "ä¸ª": 1063,
      "Ġì§Ģ": 1064,
      "bi": 1065,
      "10": 1066,
      "íĶ": 1067,
      "åįĹ": 1068,
      "åīį": 1069,
      "alĠ": 1070,
      "Ġìłķ": 1071,
      "son": 1072,
      "æĪĳä»¬": 1073,
      "sub": 1074,
      "ang": 1075,
      "ãģĭãĤī": 1076,
      "íĥ": 1077,
      "Ð¾Ð±": 1078,
      "ãģĬ": 1079,
      "¡°": 1080,
      "we": 1081,
      "ìłľ": 1082,
      "ort": 1083,
      "ê²ł": 1084,
      "fr": 1085,
      "æĭ": 1086,
      "è¥¿": 1087,
      "000": 1088,
      "ãĥ¥": 1089,
      "éļ": 1090,
      "ãģ£ãģŁ": 1091,
      "ok": 1092,
      "ãĥ£": 1093,
      "æĹ¶": 1094,
      "ëŀ": 1095,
      "eĠdeĠ": 1096,
      "areĠ": 1097,
      "Ð²Ð¸": 1098,
      "ê²Į": 1099,
      "Ġ5": 1100,
      "à¥ī": 1101,
      "ãĤ£": 1102,
      "Ã¨Ġ": 1103,
      "åĲĮ": 1104,
      "ĠìķĦ": 1105,
      "ãģĵãģ¨": 1106,
      "ilĠ": 1107,
      "èī": 1108,
      "æķĻ": 1109,
      "å¸Ĥ": 1110,
      "Īëĭ¤.": 1111,
      "Ġë¶": 1112,
      "i,Ġ": 1113,
      "åħ±": 1114,
      "å¸¸": 1115,
      "du": 1116,
      "Ø¸": 1117,
      "ÙĦÙĬ": 1118,
      "auf": 1119,
      "Ġìĭľ": 1120,
      "sp": 1121,
      "æ¬": 1122,
      "¤ĳ": 1123,
      "ĠØ¯": 1124,
      "ÙħØ§": 1125,
      "ë©°": 1126,
      "å»": 1127,
      "ï¼Ľ": 1128,
      "ë¶Ģ": 1129,
      "æľĢ": 1130,
      "Ġà¤¹à¤®": 1131,
      "åĲĪ": 1132,
      "ĠØ¥ÙĦÙī": 1133,
      "æ¨": 1134,
      "åı·": 1135,
      "ë²": 1136,
      "ìĻĢ": 1137,
      "à¤ĸ": 1138,
      "åł": 1139,
      "Ø©ĠØ§ÙĦ": 1140,
      "ìĥģ": 1141,
      "gr": 1142,
      "ä¸ĸ": 1143,
      "íĦ°": 1144,
      "Ġëĵ": 1145,
      "è¨Ģ": 1146,
      "Ø§Ø¨": 1147,
      "çĤº": 1148,
      "Ġê°Ģ": 1149,
      "ÑįÑĤÐ¾": 1150,
      "ì²": 1151,
      "èĢħ": 1152,
      "eh": 1153,
      "ĠÐµ": 1154,
      "ìĽĶ": 1155,
      "à¥ĩĠà¤ķ": 1156,
      "éŁ³": 1157,
      "ıà¤ķ": 1158,
      "ìŀħ": 1159,
      "ungĠ": 1160,
      "Ã§": 1161,
      "Ġë¬": 1162,
      "ĠìłĦ": 1163,
      "ãģ¤": 1164,
      "queĠ": 1165,
      "à¤¨à¥ĩĠà¤": 1166,
      "éĺ": 1167,
      "ett": 1168,
      "ä»ĸ": 1169,
      "Ġà¤Ń": 1170,
      "ÐµÐ¹": 1171,
      "åĮº": 1172,
      "eur": 1173,
      "ç¬": 1174,
      "ëıĻ": 1175,
      "åĨħ": 1176,
      "Ð»Ñı": 1177,
      ":Ġ": 1178,
      "Ġêµ": 1179,
      "ä¹ĭ": 1180,
      "ç«ĭ": 1181,
      "ë¯¼": 1182,
      "sub>": 1183,
      "ê²łìĬµëĭĪëĭ¤": 1184,
      "Ø±ÙĬ": 1185,
      "ansĠ": 1186,
      "ãĤª": 1187,
      "çĦ": 1188,
      "Ġà¤¤": 1189,
      "lich": 1190,
      "à¥ĩĠà¤¹à¥Īà¤Ĥ": 1191,
      "ĠderĠ": 1192,
      "ÙĦØ§": 1193,
      "Ð¾ÑĢÐ¾": 1194,
      "çı": 1195,
      "ç¶": 1196,
      "à¤¹à¥Ģ": 1197,
      "çľģ": 1198,
      "ãģł": 1199,
      "id": 1200,
      "ãĤ°": 1201,
      "ereĠ": 1202,
      "anc": 1203,
      "åŃĲ": 1204,
      "à¤¾à¤¯": 1205,
      "Ġê·¸": 1206,
      "åħ¶": 1207,
      "acc": 1208,
      "ãĤĦ": 1209,
      "Ø¹Ø¯": 1210,
      "å¹³": 1211,
      "br": 1212,
      "ĠÐ¾ÑĤ": 1213,
      "éł": 1214,
      "ìļ°": 1215,
      "Ġà¤ķà¤¿": 1216,
      "ãĤĵ": 1217,
      "ìĦł": 1218,
      "ez": 1219,
      "anĠ": 1220,
      "ãĤģ": 1221,
      "ĠÐ±Ñĭ": 1222,
      "æĦ": 1223,
      "é£": 1224,
      "Ð½Ñı": 1225,
      "ĠÐ¿Ð¾": 1226,
      "âĢľ": 1227,
      "ĠdeĠ": 1228,
      "Ã©t": 1229,
      "Ġ7": 1230,
      "vousĠ": 1231,
      "à¤¾à¤®": 1232,
      "ÑģÐºÐ¸": 1233,
      "cap": 1234,
      "íĻĶ": 1235,
      "ãĤ»": 1236,
      "å£": 1237,
      "ãģĳ": 1238,
      "åĮĹ": 1239,
      "ãĥĨ": 1240,
      "ãĥŀ": 1241,
      "ĠÑĢÐ°": 1242,
      "art": 1243,
      "åĪ¶": 1244,
      "verstand": 1245,
      "you": 1246,
      "ë©´": 1247,
      "Ġëı": 1248,
      "ìĦ±": 1249,
      "æĶ¶": 1250,
      "å¾Į": 1251,
      "äºİ": 1252,
      "à¤¾à¤Ĥ": 1253,
      "ç¤¾": 1254,
      "èģ": 1255,
      "ill": 1256,
      "éĩĮ": 1257,
      "è©": 1258,
      "iz": 1259,
      "ãĤĬãĢģ": 1260,
      "Įê²łìĬµëĭĪëĭ¤": 1261,
      "aut": 1262,
      "ÙĤØ¯": 1263,
      "Ġà¤¹à¥ĭ": 1264,
      "Ð°Ð½Ð¸": 1265,
      "æı": 1266,
      "Ġìĸ": 1267,
      "âĢĵ": 1268,
      "ãģĹãģ¦ãģĦ": 1269,
      "Ġà¤ī": 1270,
      "200": 1271,
      "à¥ĥ": 1272,
      "aus": 1273,
      "æķ°": 1274,
      "ÙĦÙĥ": 1275,
      "æ¼": 1276,
      "Ġ[": 1277,
      "if": 1278,
      "åħ¬": 1279,
      "Ġìłľ": 1280,
      "åĭķ": 1281,
      "ëį": 1282,
      "Ġê¸°": 1283,
      "åħ¥": 1284,
      "éķ": 1285,
      "ĠØ±": 1286,
      "ç¬¬": 1287,
      "ëĭ¤.Ġ": 1288,
      "ÑģÑĤÐ°": 1289,
      "ç½": 1290,
      "ĠÐ»": 1291,
      "ëĭĪ": 1292,
      "etz": 1293,
      "æľŁ": 1294,
      "æ°´": 1295,
      "Ã¼r": 1296,
      "ãĥĳ": 1297,
      "à¤®à¤": 1298,
      "ÑĩÐ¸": 1299,
      "Ð¾Ð»ÑĮ": 1300,
      "ìĹ¬": 1301,
      "åĬĽ": 1302,
      "ÑĢÐ¾Ð²": 1303,
      "ĠÑĤ": 1304,
      "êµ¬": 1305,
      "å±±": 1306,
      "å¤ĸ": 1307,
      "ì¹ĺ": 1308,
      "Ġà¤ķà¤¾Ġà¤": 1309,
      "ementĠ": 1310,
      "ëĵľ": 1311,
      "ìĭł": 1312,
      "ìķĮê²łìĬµëĭĪëĭ¤": 1313,
      "çł": 1314,
      "Ġìļ°": 1315,
      "ÙĬØ§": 1316,
      "18": 1317,
      "tion": 1318,
      "ä½ĵ": 1319,
      "ak": 1320,
      "ç³": 1321,
      "æĺİ": 1322,
      "ìŀ¥": 1323,
      "ĠÐ¿ÑĢÐ¸": 1324,
      "çı¾": 1325,
      "ÑģÑĤÐ¸": 1326,
      "é»": 1327,
      "çİ°": 1328,
      "à¤®à¤Ŀ": 1329,
      "Ð´Ð¸": 1330,
      "Â«": 1331,
      "æīĢ": 1332,
      "éĿ¢": 1333,
      "Ġà¤¸à¤Ĥ": 1334,
      "ĠÙĦÙĦ": 1335,
      "Ġíķ": 1336,
      "hou": 1337,
      "è«": 1338,
      "è¡¨": 1339,
      "Ø±Ø¨": 1340,
      "æº": 1341,
      "ØªÙħ": 1342,
      "Â»": 1343,
      "æĢ§": 1344,
      "à¤¾à¤ľ": 1345,
      "Ø§Ø³Øª": 1346,
      "åĲį": 1347,
      "ben": 1348,
      "èĭ": 1349,
      "desĠ": 1350,
      "æĥ": 1351,
      "Ã©Ġ": 1352,
      "ãĥ¡": 1353,
      "ÑģÐ¸": 1354,
      ",ĠÑĩ": 1355,
      "à¥įà¤¥": 1356,
      "ern": 1357,
      "nousĠ": 1358,
      "ãĥĸ": 1359,
      "und": 1360,
      "èĢĮ": 1361,
      "Ġà¤ªà¤°": 1362,
      "enn": 1363,
      "å¾Ĺ": 1364,
      "wi": 1365,
      "ãĢİ": 1366,
      "ãĢı": 1367,
      "èĳ": 1368,
      "Ĩµ": 1369,
      "ÙĬÙĦ": 1370,
      "åıĬ": 1371,
      "éĸĵ": 1372,
      "ìĿĺĠì": 1373,
      "äºĨè§£ãģĹãģ¾": 1374,
      "æĿ¥": 1375,
      "åıĳ": 1376,
      "ë§Į": 1377,
      "ge": 1378,
      "...": 1379,
      "æĸ°": 1380,
      "Ġà¤¹à¥Īà¤Ĥ": 1381,
      "ĠØ´": 1382,
      "Ð¾Ð¶": 1383,
      "Ñĳ": 1384,
      "ãģ¾ãģĻãĢĤ": 1385,
      "ä½į": 1386,
      "å¢": 1387,
      "oĠdiĠ": 1388,
      "Ġ8": 1389,
      "Ð¾Ðº": 1390,
      "urĠ": 1391,
      "à¤¿à¤²": 1392,
      "Ø¨Ø±": 1393,
      "çĶ±": 1394,
      "ìĽĲ": 1395,
      "ç³»": 1396,
      "ëŁ¬": 1397,
      "ìłĦ": 1398,
      "à¤¡à¤¼": 1399,
      "af": 1400,
      "ãĥĲ": 1401,
      "ä½¿": 1402,
      "¦Ĥ": 1403,
      "Ð´Ðµ": 1404,
      "ÐºÐ¸": 1405,
      "ìĺĢ": 1406,
      "Ð¾Ð¿": 1407,
      "ļĮ": 1408,
      "aĠp": 1409,
      "ãĥł": 1410,
      "Ø°Ø§": 1411,
      "åķ": 1412,
      "ĠÐ¾Ð±": 1413,
      "sieĠ": 1414,
      "ĠØ§ÙĦØŃ": 1415,
      "ê¸": 1416,
      "Ġr": 1417,
      "ricev": 1418,
      "eĠdiĠ": 1419,
      "è»": 1420,
      "ë¹Ħ": 1421,
      "ãĤŃ": 1422,
      "Ġë³´": 1423,
      "ah": 1424,
      "up": 1425,
      "t,Ġ": 1426,
      "a.Ġ": 1427,
      "Ł¥": 1428,
      "ãĥī": 1429,
      "aiĠ": 1430,
      "âĢĿ": 1431,
      "ë³´": 1432,
      "Ĩà¤ªà¤ķ": 1433,
      "amoĠ": 1434,
      "usĠ": 1435,
      "åĲİ": 1436,
      "è·": 1437,
      "onsĠ": 1438,
      "à¤¾à¤¹": 1439,
      "Ĥ°": 1440,
      "Ġ20": 1441,
      "isch": 1442,
      "à¥įà¤¸": 1443,
      "à¤¿à¤ı": 1444,
      "íķĺëĬĶ": 1445,
      "é¢": 1446,
      "ten": 1447,
      "bl": 1448,
      "ÑģÑĮ": 1449,
      "reÃ§": 1450,
      "ĠìĿ¼": 1451,
      "à¤¾à¤ģ": 1452,
      "ĠìŀĲ": 1453,
      "Ġà¤¹à¥Īà¥¤": 1454,
      "æ²»": 1455,
      "Ð½Ñĥ": 1456,
      "ges": 1457,
      "å·ŀ": 1458,
      "ier": 1459,
      "ĠØ§ÙĦØ³": 1460,
      "ĠìĹ¬": 1461,
      "ãģĮãĢģ": 1462,
      "ÑĪÐ¸": 1463,
      "Ġëĭ¤": 1464,
      "æĶ¶åĪ°": 1465,
      "ost": 1466,
      "Ġk": 1467,
      "ãĤı": 1468,
      "Ð¼Ð°": 1469,
      "ä¸ľ": 1470,
      "ê°Ħ": 1471,
      "Ùĳ": 1472,
      "ìŀħëĭĪëĭ¤": 1473,
      "wh": 1474,
      "éĥ½": 1475,
      "èŃ": 1476,
      "quiĠ": 1477,
      "ÑģÐµ": 1478,
      "thatĠ": 1479,
      "ÑģÑĤÑĮ": 1480,
      "eĠdel": 1481,
      "éĤ": 1482,
      "ston": 1483,
      "ìļ©": 1484,
      "ãĥģ": 1485,
      "ä¸ŃåĽ½": 1486,
      "Ġì¤ĳ": 1487,
      "è³": 1488,
      "Ġà¤¶": 1489,
      "ä¿¡": 1490,
      "ìļĶ": 1491,
      "ãĥĭ": 1492,
      "à¤¿à¤¸": 1493,
      "éĩį": 1494,
      "æĸ¯": 1495,
      "ãģªãģ©": 1496,
      "ai": 1497,
      "tenĠ": 1498,
      "Ġà¤¯": 1499,
      "es,Ġ": 1500,
      "'sĠ": 1501,
      "Ġ0": 1502,
      "äºĭ": 1503,
      "à¤¯à¤¾": 1504,
      "ë¶Ħ": 1505,
      "enc": 1506,
      "à¥ĩà¤ķ": 1507,
      "æĹı": 1508,
      "ëĭ¹": 1509,
      "comm": 1510,
      "Ø§Ùģ": 1511,
      "ãģ§ãģĻãĢĤ": 1512,
      "Ð»Ð¾": 1513,
      "Ġà¤¹à¥Īà¥¤Ġà¤": 1514,
      "app": 1515,
      "azion": 1516,
      "Ġà¤®à¥Īà¤Ĥ": 1517,
      "siĠ": 1518,
      "gh": 1519,
      "çī¹": 1520,
      "reÃ§u": 1521,
      "Ġin": 1522,
      "denĠ": 1523,
      "ç®": 1524,
      "åı£": 1525,
      "íķĺê³ł": 1526,
      "ĠÐ²Ð°": 1527,
      "à¤¿à¤¯à¤¾": 1528,
      "´Ģ": 1529,
      "ãĤ¨": 1530,
      "ï¼ļ": 1531,
      "soĠ": 1532,
      "à¤¸à¤®à¤Ŀ": 1533,
      "ãģªãģĦ": 1534,
      "iss": 1535,
      "ãĥĥãĤ¯": 1536,
      "s.Ġ": 1537,
      "ĠìľĦ": 1538,
      "åı¤": 1539,
      "Ġë²": 1540,
      "à¤¹à¥Ģà¤Ĥ": 1541,
      "ricevut": 1542,
      "form": 1543,
      "íĸī": 1544,
      "ãĤ¹ãĥĪ": 1545,
      "Ð½Ð¾Ð¹": 1546,
      "ÙĪØ¯": 1547,
      "èµ·": 1548,
      "vo": 1549,
      "à¤¾à¤¦": 1550,
      "Ġà¤Ķà¤°Ġà¤": 1551,
      "ÙĪÙĤ": 1552,
      "å¤©": 1553,
      "Ġ6": 1554,
      "Ð½Ðµ": 1555,
      "è¢": 1556,
      "ê³Ħ": 1557,
      "ÑħÐ¾ÑĢÐ¾": 1558,
      "12": 1559,
      "ä¹Ł": 1560,
      "fin": 1561,
      "he": 1562,
      "iaĠ": 1563,
      "ê±": 1564,
      "nel": 1565,
      "ç·": 1566,
      "ä¸İ": 1567,
      "houston": 1568,
      "Ġà¤Ĩ": 1569,
      "ãģ£ãģ¦": 1570,
      "è´": 1571,
      "ãĥĩ": 1572,
      "ÑĤÐµÐ»ÑĮ": 1573,
      "å¼ı": 1574,
      "ĠØ®": 1575,
      "Ġà¤ķà¥Ģ": 1576,
      "dasĠ": 1577,
      "ĠÑĦ": 1578,
      "Ġà¤¸à¤®": 1579,
      "ĠíĻ": 1580,
      "ÐµÑĢÐµ": 1581,
      "æ¬¡": 1582,
      "à¤ł": 1583,
      "ç§ĳ": 1584,
      "ÐµÐ½Ð¸Ðµ": 1585,
      "ÑĢÑĭ": 1586,
      "à¤¿à¤¶": 1587,
      "Ã©r": 1588,
      "ãĢĬ": 1589,
      "ãĢĭ": 1590,
      "ÐµÐ½Ð¸Ñı": 1591,
      "uc": 1592,
      "æľĥ": 1593,
      "ìĨĮ": 1594,
      "à¤¨à¥įà¤": 1595,
      "å¦Ĥ": 1596,
      "rem": 1597,
      "ĠÐ¼Ñĭ": 1598,
      "åģ": 1599,
      "Ð¾Ð·": 1600,
      "Ð¿ÑĢÐ¸": 1601,
      "à¤Ĥà¤¤": 1602,
      "åĬł": 1603,
      ",Ġì": 1604,
      "te": 1605,
      "à¤·": 1606,
      "jeĠ": 1607,
      "ë¬¸": 1608,
      "rec": 1609,
      "aĠd": 1610,
      "ãĤĪãģĨ": 1611,
      "å§ĭ": 1612,
      "çĽ¸": 1613,
      "à¤¾à¤µ": 1614,
      "ãģĿãĤĮ": 1615,
      "ãģĽ": 1616,
      "Ð¾Ð´Ð°": 1617,
      "bu": 1618,
      "emp": 1619,
      "åİŁ": 1620,
      "ģ¬": 1621,
      "ÐºÐ¾": 1622,
      "Ø¥": 1623,
      "å·¥": 1624,
      "éģĵ": 1625,
      "çķĮ": 1626,
      "gu": 1627,
      "éĩı": 1628,
      "å»º": 1629,
      "à¥ĩĠà¤ª": 1630,
      "æ±Ł": 1631,
      "ÙģÙĬ": 1632,
      "Ġíķľ": 1633,
      "çĦ¶": 1634,
      "Â·": 1635,
      "ä»Ĭ": 1636,
      "åĻ": 1637,
      "å¼Ģ": 1638,
      "15": 1639,
      "Ø¨ÙĦ": 1640,
      "è½": 1641,
      "ë£": 1642,
      "ÙĥÙĨ": 1643,
      "uneĠ": 1644,
      "è¦ĭ": 1645,
      "ĠØ¨Ø§ÙĦ": 1646,
      "kĠ": 1647,
      "Ġà¤ļ": 1648,
      "ãģ«ãĤĪ": 1649,
      "ĽĦ": 1650,
      "aĠc": 1651,
      "éĸĭ": 1652,
      "ãĥ¼ãĥĪ": 1653,
      "ÙĩÙħ": 1654,
      "çłĶ": 1655,
      "è£": 1656,
      "íķĺìĺĢ": 1657,
      "å¿ĥ": 1658,
      "ÃŁ": 1659,
      "ĠÐ¿ÑĢÐ¾": 1660,
      "Ø³ÙĨ": 1661,
      "Īëĭ¤.Ġ": 1662,
      "ç»ı": 1663,
      "ĠÐ¿Ð¾Ð»": 1664,
      "rog": 1665,
      "er.Ġ": 1666,
      "ÑħÐ¾ÑĢÐ¾ÑĪ": 1667,
      "unĠ": 1668,
      "berĠ": 1669,
      "°à¤¹": 1670,
      "ãģĹãĢģ": 1671,
      "å°ĳ": 1672,
      "ĠÑĢÐµ": 1673,
      "och": 1674,
      "è¶": 1675,
      "é¦": 1676,
      "ØŃØ¯": 1677,
      "ìĦ¸": 1678,
      "ze": 1679,
      "wasĠ": 1680,
      "ç©¶": 1681,
      "ĠÐ¸Ð·": 1682,
      "inc": 1683,
      "ĠëĮĢíķľ": 1684,
      "ãĤ§": 1685,
      "å°ı": 1686,
      "aĠdiĠ": 1687,
      "èĳĹ": 1688,
      "ĠØ§ÙĦØ¬": 1689,
      "ĠtheĠ": 1690,
      "æ©": 1691,
      "Ð½Ð¾Ð³Ð¾": 1692,
      "æľº": 1693,
      "å·²": 1694,
      "à¤¾à¤ª": 1695,
      "ioĠ": 1696,
      "Ġëª¨": 1697,
      "verstanden.Ġ": 1698,
      "ÙĬÙħ": 1699,
      "Ġcon": 1700,
      "ç¥": 1701,
      "ĠÑį": 1702,
      "ãģ£ãģ¦ãģĦ": 1703,
      ",ĠÑĩÑĤÐ¾": 1704,
      "adĠ": 1705,
      "ç±": 1706,
      "t.Ġ": 1707,
      "ãģ«ãģ¯": 1708,
      "Ð¾ÑĤ": 1709,
      "ìĬµëĭĪëĭ¤.Ġ": 1710,
      "çłĶç©¶": 1711,
      "ìĤ°": 1712,
      "à¤¤à¤¾Ġà¤¹à¥Ī": 1713,
      "à¥įà¤²": 1714,
      "Ø±ÙĪ": 1715,
      "íĶĦ": 1716,
      "íĮ": 1717,
      "à¤Ĥà¤Ĺ": 1718,
      "aĠs": 1719,
      "Ġà¤°à¤¹": 1720,
      "gn": 1721,
      "ä¸ī": 1722,
      "itt": 1723,
      "ë§Ī": 1724,
      "man": 1725,
      "æĹ¥æľ¬": 1726,
      "pu": 1727,
      "åĬ¨": 1728,
      "èĤ": 1729,
      "à¤ģ": 1730,
      "inut": 1731,
      "Ġì¶": 1732,
      "à¥ĩà¤¶": 1733,
      "outĠ": 1734,
      "Ġìľł": 1735,
      "Ġà¤ķà¥ĩĠà¤²": 1736,
      "åł´": 1737,
      "quest": 1738,
      "stat": 1739,
      "laĠc": 1740,
      "à¥ĩà¤µ": 1741,
      "ĠdesĠ": 1742,
      "ĠìĿ¸": 1743,
      "Ġíĺ": 1744,
      "Ãª": 1745,
      "à¤¾Ġà¤¹": 1746,
      "ê³µ": 1747,
      "å±ķ": 1748,
      "ãĤ¿ãĥ¼": 1749,
      "ãĥŁ": 1750,
      "Ø¹Ø©": 1751,
      "ÙĦØ©": 1752,
      "ard": 1753,
      "âĢĻ": 1754,
      "íķł": 1755,
      "199": 1756,
      "-Ġ": 1757,
      "ind": 1758,
      "à¥ģà¤¨": 1759,
      "liĠ": 1760,
      "laĠp": 1761,
      "ĠØ¹ÙĨ": 1762,
      "Ð·Ð°": 1763,
      "ìĹĪ": 1764,
      "Ġì¡°": 1765,
      "å½¢": 1766,
      "åĻ¨": 1767,
      "oh": 1768,
      "me": 1769,
      "íı": 1770,
      "íķ©": 1771,
      "åŁº": 1772,
      "Ø¦": 1773,
      "anoĠ": 1774,
      "íĸĪ": 1775,
      "go": 1776,
      "åı²": 1777,
      "äºĨè§£ãģĹãģ¾ãģĹãģŁãĢĤ": 1778,
      "ãģĿãģ®": 1779,
      "inter": 1780,
      "Ø³Ùħ": 1781,
      "Ø±Ùĥ": 1782,
      "åĪ©": 1783,
      "è¢«": 1784,
      "ĠØ§ÙĦØ¥": 1785,
      "50": 1786,
      "16": 1787,
      "ment": 1788,
      "sĠdeĠ": 1789,
      "ĥĿ": 1790,
      "è¿ĩ": 1791,
      "è«ĸ": 1792,
      "ãĤ¦": 1793,
      "ì°": 1794,
      "íļĮ": 1795,
      "ãģĮãģĤ": 1796,
      "åħĥ": 1797,
      "hip": 1798,
      "à¤Ī": 1799,
      "vol": 1800,
      "ãģ§ãģ¯": 1801,
      "à¥Į": 1802,
      "ãĤº": 1803,
      "ĠìĨ": 1804,
      "çĪ": 1805,
      "ëĦ": 1806,
      "èī¯": 1807,
      "å²": 1808,
      "çĻº": 1809,
      "æĮĩ": 1810,
      "ÑħÐ¾ÑĢÐ¾ÑĪÐ¾": 1811,
      "er,Ġ": 1812,
      "ĠÑģÐ¾": 1813,
      "Ð½ÑıÑĤÐ¾": 1814,
      "æĿ±": 1815,
      "olloĠ": 1816,
      "treĠ": 1817,
      "ofĠtheĠ": 1818,
      "tur": 1819,
      "æĮģ": 1820,
      ",ĠÐº": 1821,
      "Ġà¤ªà¤°Ġà¤": 1822,
      "ìĬµëĭĪëĭ¤.": 1823,
      ",ĠÐ²": 1824,
      "ne": 1825,
      "perĠ": 1826,
      "ÙĦÙħ": 1827,
      "ĠíĶ": 1828,
      "åĿ": 1829,
      "Ð´Ñĥ": 1830,
      "æĵ": 1831,
      "ëªħ": 1832,
      "13": 1833,
      "Ġdi": 1834,
      "Ð½ÑĭÑħ": 1835,
      "ìĿĮ": 1836,
      "Ġsev": 1837,
      "ĠìĹ°": 1838,
      "ĳľ": 1839,
      "Ġse": 1840,
      "à¥ĩà¤°": 1841,
      "åĲĳ": 1842,
      "èĪª": 1843,
      "aleĠ": 1844,
      "ãģ§ãĢģ": 1845,
      "éĿŀ": 1846,
      "çľĭ": 1847,
      "åĽŀ": 1848,
      "Ð³Ð¾": 1849,
      "å½ĵ": 1850,
      "ens": 1851,
      "arĠ": 1852,
      "è²": 1853,
      "à¥ĩà¤²": 1854,
      "ãģ¡ãĤī": 1855,
      "åŁŁ": 1856,
      "à¤Ĥà¤¦": 1857,
      "ĠÑģÑĤ": 1858,
      "íŀ": 1859,
      "ìĭĿ": 1860,
      "ĠëĲ": 1861,
      "ament": 1862,
      "17": 1863,
      "Ķà¤°Ġà¤": 1864,
      "Ġ10": 1865,
      "çĤ¹": 1866,
      "omm": 1867,
      "Ġà¤Ķà¤°": 1868,
      "terĠ": 1869,
      "ĠìĦ¸": 1870,
      "ìľ¼ë©°": 1871,
      "ourĠ": 1872,
      "fÃ¼r": 1873,
      "ĠÙħØ¹": 1874,
      "alsĠ": 1875,
      "à¥Ģà¤¯": 1876,
      "å¯¹": 1877,
      "ib": 1878,
      "ãĤµ": 1879,
      "ÑģÐ¿": 1880,
      "ãĤīãĤĮ": 1881,
      "tu": 1882,
      ".Âł": 1883,
      "à¥ģà¤°": 1884,
      "çµ±": 1885,
      "æŃ¤": 1886,
      "ship": 1887,
      "ãģŁãĢĤ": 1888,
      "ungs": 1889,
      "ë¯¸": 1890,
      "à¥įà¤ª": 1891,
      "ë¥´": 1892,
      "</": 1893,
      "Ġà¤ķà¥ĩĠà¤¸": 1894,
      "aisĠ": 1895,
      "Ġ9": 1896,
      "è¿Ľ": 1897,
      "ãĥĬ": 1898,
      "è°": 1899,
      "çĽ®": 1900,
      "Ð½ÑĭÐ¹": 1901,
      "çĽ´": 1902,
      "à¥ĩà¤ĸ": 1903,
      "æ©Ł": 1904,
      "Ð¿ÑĢÐ¸Ð½ÑıÑĤÐ¾": 1905,
      "à¤¥": 1906,
      "ãĥĵ": 1907,
      "à¤«": 1908,
      "olog": 1909,
      "ãģ°": 1910,
      "ç§ģ": 1911,
      "astr": 1912,
      "ãģ¨ãģĹãģ¦": 1913,
      "ĠÂ«": 1914,
      "Ø±Ø©": 1915,
      "åºľ": 1916,
      "ĠdieĠ": 1917,
      "çŁ¥": 1918,
      "iĠs": 1919,
      "the": 1920,
      "ro": 1921,
      "Ġì£¼": 1922,
      "Ø§ÙĤ": 1923,
      "andoĠ": 1924,
      "eineĠ": 1925,
      "Ġê³µ": 1926,
      "çĶ»": 1927,
      "ãĢĤæĪĳ": 1928,
      "à¤¤à¥ĩĠà¤¹à¥Īà¤Ĥ": 1929,
      "ãĥ³ãĥī": 1930,
      "<sub>": 1931,
      "Ø¨ÙĬ": 1932,
      "Ġì°": 1933,
      "ordn": 1934,
      "íģ¬": 1935,
      "å®ĥ": 1936,
      "Ġà¤Ĺà¤¯à¤¾": 1937,
      "ä¸ĩ": 1938,
      "à¤¾Ġà¤¸": 1939,
      "Ø§ÙĨØª": 1940,
      "ìľĦ": 1941,
      "Ø³ÙĨÙĭØ§": 1942,
      "åĤ": 1943,
      "äºĮ": 1944,
      "ĠØ§ÙĦÙĤ": 1945,
      "ãģ¾ãģĻ": 1946,
      "vaĠ": 1947,
      "off": 1948,
      "ãģĵãģ¡ãĤī": 1949,
      "Ġà¤¯à¤¹": 1950,
      "Ġà¤®à¥ģà¤": 1951,
      "ĠìĿĺ": 1952,
      "ì§Ħ": 1953,
      "ÙĦØ§Ùħ": 1954,
      "à¤ļà¥įà¤": 1955,
      "éĻį": 1956,
      "à¥ģà¤¤": 1957,
      "ichtĠ": 1958,
      "emĠ": 1959,
      "æīĭ": 1960,
      "çģ": 1961,
      "ichĠ": 1962,
      "ķĮ": 1963,
      "Ġë¯": 1964,
      "æĦı": 1965,
      "Ġà¤ıà¤ķ": 1966,
      "æµģ": 1967,
      "ph": 1968,
      "--": 1969,
      "Ġ200": 1970,
      "30": 1971,
      "íŀĪ": 1972,
      "ĠÐ¿ÑĢÐµ": 1973,
      "Ð½ÑĭÐµ": 1974,
      "ë¬´": 1975,
      "fri": 1976,
      "ond": 1977,
      "Ġì²": 1978,
      "ç¨ĭ": 1979,
      "ĠÐ¼Ð¸": 1980,
      "èĩ³": 1981,
      "æİ¥": 1982,
      "à¥įà¤ķ": 1983,
      "ì§ĢĠìķ": 1984,
      "i.Ġ": 1985,
      "ãĥ¼ãĥ«": 1986,
      "æ¯Ķ": 1987,
      "ĠÑı": 1988,
      "ationĠ": 1989,
      "ç¾©": 1990,
      "14": 1991,
      "iĠd": 1992,
      ",Ġà¤ľ": 1993,
      "ê¹": 1994,
      "Ð»Ñİ": 1995,
      ".ĠÐ²": 1996,
      "fil": 1997,
      "y,Ġ": 1998,
      "xĠ": 1999,
      "Ġíķĺ": 2000,
      "resĠ": 2001,
      "èĪĩ": 2002,
      "à¥ĭà¤Ĺ": 2003,
      "å®ī": 2004,
      "åĽł": 2005,
      "è¿ĳ": 2006,
      "å¥½çļĦ": 2007,
      "ĠíĮ": 2008,
      "ê³łĠìŀĪ": 2009,
      "ik": 2010,
      "Ø³ÙĬ": 2011,
      "åıĸ": 2012,
      "ÙħØ±": 2013,
      "oraĠ": 2014,
      "æĸ¼": 2015,
      "fa": 2016,
      "ÑħÐ¾Ð´": 2017,
      "ĠÐ¿Ð¾Ð´": 2018,
      "ĠìĬ": 2019,
      "ÑģÑĤÐ¾": 2020,
      "part": 2021,
      "ãĤĤãģ®": 2022,
      "è¼": 2023,
      "onn": 2024,
      "Ð²Ðµ": 2025,
      "ãģĦãģ¦": 2026,
      "ãĥ¼ãĥł": 2027,
      "å®ĩ": 2028,
      "ãģĵãģ®": 2029,
      "Ġëį": 2030,
      "oreĠ": 2031,
      "ger": 2032,
      "ä¸ļ": 2033,
      "Ġìĥģ": 2034,
      "âĢ¦": 2035,
      "fl": 2036,
      "çĿ": 2037,
      "e.": 2038,
      "ĠëĤĺ": 2039,
      "ç¾İ": 2040,
      "Ùı": 2041,
      "æľĿ": 2042,
      "thisĠ": 2043,
      "à¥ĭà¤²": 2044,
      "æ²³": 2045,
      "çİ°åľ¨": 2046,
      "åĽĽ": 2047,
      "Ġê°Ļ": 2048,
      "ãĥ³ãĥĪ": 2049,
      "äºĽ": 2050,
      "'estĠ": 2051,
      "ser": 2052,
      "ãģ¨ãģĦ": 2053,
      "contr": 2054,
      "Ġë°ľ": 2055,
      "Ġì¢": 2056,
      "aĠm": 2057,
      "Ġà¤ķà¤°Ġà¤": 2058,
      "endship": 2059,
      "ëª¨": 2060,
      "æ¸ħ": 2061,
      "enz": 2062,
      "iqu": 2063,
      "alt": 2064,
      "à¥ĩĠà¤¸": 2065,
      "Ø¯ÙĬ": 2066,
      "ĳĲ": 2067,
      "æ¥Ń": 2068,
      "Ġà¤ĩà¤¸": 2069,
      "inĠtheĠ": 2070,
      "ä¸Ńåľĭ": 2071,
      "æ®": 2072,
      "à¤¾à¤°à¤¤": 2073,
      "Ø§Ø¹": 2074,
      "ãģ¿": 2075,
      "à¤¾à¤Ī": 2076,
      "ëĲľ": 2077,
      "à¥įà¤®": 2078,
      "ativ": 2079,
      "ĠØ§ÙĦØ´": 2080,
      "ÂłâĢĶ": 2081,
      "</sub>": 2082,
      "pos": 2083,
      "ont": 2084,
      "å°Ĩ": 2085,
      "Ġà¤ķà¥ĩĠà¤²à¤¿à¤ı": 2086,
      "æ§": 2087,
      "èĲ": 2088,
      "Ø¨Ø¯": 2089,
      "ionĠ": 2090,
      "endshipĠsev": 2091,
      "okay": 2092,
      "eĠh": 2093,
      "ĠÐ¿ÐµÑĢÐµ": 2094,
      "à¤¿à¤¯à¤¾Ġà¤": 2095,
      "accord": 2096,
      "ĠÐ¿ÑĢ": 2097,
      "èĭ±": 2098,
      "reg": 2099,
      "assĠ": 2100,
      "ê¸Ī": 2101,
      "az": 2102,
      "Ã¹": 2103,
      "Ġìļ°ë¦¬": 2104,
      "ä¿Ŀ": 2105,
      "èı": 2106,
      "ë¯¼êµŃ": 2107,
      "æĪĸ": 2108,
      "ì§ĢĠìķĬ": 2109,
      "ÙĥÙĦ": 2110,
      "ĠÑĤÐµ": 2111,
      "Ã¨sĠ": 2112,
      ",000": 2113,
      "ÙĨÙĬ": 2114,
      "wer": 2115,
      "Ð°Ñı": 2116,
      "Ġê±": 2117,
      "ç©º": 2118,
      "Ġëĵ±": 2119,
      "à¥Ģà¤¨": 2120,
      "à¥ģà¤Ľ": 2121,
      "tut": 2122,
      "ement": 2123,
      "pi": 2124,
      "ì½": 2125,
      "åıĹ": 2126,
      "pro": 2127,
      "ontĠ": 2128,
      "198": 2129,
      "åĢĭ": 2130,
      "ricevuto.Ġ": 2131,
      "ĠØ°": 2132,
      "apolloĠ": 2133,
      "ÑĤÑĥ": 2134,
      "vor": 2135,
      "ireĠ": 2136,
      "ì²´": 2137,
      "à¤¾à¤·": 2138,
      "aveĠ": 2139,
      "reÃ§u.Ġ": 2140,
      "íķĺìĹ¬": 2141,
      "rit": 2142,
      "ĠØ·": 2143,
      "ëł¤": 2144,
      "ãĥ¼ãĥī": 2145,
      "sc": 2146,
      "Ġhab": 2147,
      "íĺ¸": 2148,
      "ãĥ¥ãĥ¼": 2149,
      "ial": 2150,
      "elĠ": 2151,
      "Ġë¹Ħ": 2152,
      "aĠdel": 2153,
      "íĥĢ": 2154,
      "ØŃØ³ÙĨÙĭØ§": 2155,
      "Ġà¤ķà¥Ī": 2156,
      "ëł¥": 2157,
      "ä¸ĸçķĮ": 2158,
      "ì¡°": 2159,
      "çĬ": 2160,
      "indĠ": 2161,
      "åĲĦ": 2162,
      "ĠØ§ÙĦØ¯": 2163,
      "ĠØ§ÙĦÙģ": 2164,
      "ìŀ¬": 2165,
      "ãģ§ãģĤãĤĭãĢĤ": 2166,
      "Ø¹Ùħ": 2167,
      "å½±": 2168,
      "åĵģ": 2169,
      "la": 2170,
      "Ġíı": 2171,
      "à¤¸à¤®à¤ĿĠà¤Ĺà¤¯à¤¾": 2172,
      "äººæ°ĳ": 2173,
      "laĠm": 2174,
      "ĠØ§ÙĦÙĥ": 2175,
      "å¹´ï¼Į": 2176,
      ",ĠÐ¸": 2177,
      "meĠ": 2178,
      "æĶ¹": 2179,
      "ĠÐºÐ°Ðº": 2180,
      "é©": 2181,
      "ĠÙĩÙĨØ§": 2182,
      "ĠØ³ÙĬ": 2183,
      ".5": 2184,
      "atur": 2185,
      "vers": 2186,
      "è·¯": 2187,
      "è±": 2188,
      ".ĠÙĪ": 2189,
      "äº§": 2190,
      "iciĠ": 2191,
      "ãĥ©ãĥ³": 2192,
      "ÑĢÐ°Ð²": 2193,
      "ç¤¾ä¼ļ": 2194,
      "ÐµÐ²": 2195,
      "ë¸": 2196,
      "Ø§ÙĦÙĬ": 2197,
      "Ġà¤¸à¥įà¤¥": 2198,
      "à¥ĩà¤Ł": 2199,
      "à¤ķà¥įà¤·": 2200,
      "Ø±Ø¬": 2201,
      "Ġê°ľ": 2202,
      "å¤ª": 2203,
      "å¾Ī": 2204,
      "friendshipĠsev": 2205,
      "ÑĢÐ¾Ñģ": 2206,
      "ç»Ł": 2207,
      "arch": 2208,
      "ìĺ¤": 2209,
      "eb": 2210,
      "ÑģÐºÐ¾Ð¹": 2211,
      "ĠëķĮ": 2212,
      "unaĠ": 2213,
      "Ø§ØŃ": 2214,
      "ä½Ĩ": 2215,
      "à¥ĩà¤¤": 2216,
      "æıĲ": 2217,
      "lin": 2218,
      "Ġà¤¥": 2219,
      "Ġëĵ¤": 2220,
      "Ġê²½": 2221,
      "ç¢": 2222,
      "äººåı£": 2223,
      "ç¶ĵ": 2224,
      "Ð¿Ð°": 2225,
      "ĠíĨµ": 2226,
      "ĠìĦł": 2227,
      "à¤¾à¤¥": 2228,
      "éĽĨ": 2229,
      "ç´Ħ": 2230,
      "Ġ18": 2231,
      "Ð¾Ð²Ð°": 2232,
      "à¥Ĥà¤ª": 2233,
      "Ġìº": 2234,
      ",Ġd": 2235,
      "sul": 2236,
      "à¤¿à¤°": 2237,
      "ãĥı": 2238,
      "prim": 2239,
      "å¾·": 2240,
      "æģ": 2241,
      ",Ġm": 2242,
      "Ġíĸ": 2243,
      "with": 2244,
      "åĪĿ": 2245,
      "æĶ¿åºľ": 2246,
      "ç¦": 2247,
      "ÙħÙĨ": 2248,
      "çĻ¼": 2249,
      "ĠìĻ": 2250,
      "ãĥĥãĥĪ": 2251,
      "ip": 2252,
      "ÙĬÙĪ": 2253,
      "æĢĿ": 2254,
      "ĠìĽ": 2255,
      "astron": 2256,
      "ãĤ¤ãĥ³": 2257,
      "Ġë¶Ģ": 2258,
      "Ġíķ´": 2259,
      "åķı": 2260,
      "no": 2261,
      "ĠÑĩ": 2262,
      "ĠìŀĪëĭ¤.": 2263,
      "åįģ": 2264,
      "æºĲ": 2265,
      "è»į": 2266,
      "åħ³": 2267,
      "ØĽ": 2268,
      "ari": 2269,
      "oĠdel": 2270,
      "à¥Ĥà¤ģ": 2271,
      "Ġà¥": 2272,
      "ans": 2273,
      "gen": 2274,
      "ouv": 2275,
      "Ġëħ": 2276,
      "qu'": 2277,
      "éĢ²": 2278,
      "Ġìĺ¤": 2279,
      "êµĲ": 2280,
      "Ġà¤«": 2281,
      "å®Į": 2282,
      "gem": 2283,
      ",Ġc": 2284,
      "Ø§Ø¬": 2285,
      "197": 2286,
      "ÂłÐ³": 2287,
      "æĸĩåĮĸ": 2288,
      "Ġìŀĳ": 2289,
      "prob": 2290,
      "Ø§Øµ": 2291,
      "åŃĺ": 2292,
      "íĺĦ": 2293,
      "éĢ£": 2294,
      "Ø¡": 2295,
      "ĠØ§ÙĦØ¢": 2296,
      "ãĥĶ": 2297,
      "oĠm": 2298,
      "éĢŁ": 2299,
      "æĥ³": 2300,
      "d'accord": 2301,
      "amm": 2302,
      "å¹¶": 2303,
      "ilĠp": 2304,
      "ĠØ§ÙĦØ®": 2305,
      "ãģ«ãģª": 2306,
      "es.Ġ": 2307,
      "éķ¿": 2308,
      "vonĠ": 2309,
      "ä½¿çĶ¨": 2310,
      "Ð»Ñĭ": 2311,
      "ç¤º": 2312,
      "port": 2313,
      "ëĵł": 2314,
      "æĶ¾": 2315,
      "ãģĵãĤĮ": 2316,
      "èªį": 2317,
      "Ġà¤ķà¥įà¤¯": 2318,
      "à¤¿à¤®": 2319,
      "Ġë°©": 2320,
      "èĴ": 2321,
      "ì¡": 2322,
      "60": 2323,
      "éĴ": 2324,
      "ĠØ§ÙĦÙĨ": 2325,
      "ÑĪÐµ": 2326,
      "conĠ": 2327,
      "lo": 2328,
      "ÑīÐµ": 2329,
      "ê±°": 2330,
      "ãĤĭãģĵãģ¨": 2331,
      "houston.Ġ": 2332,
      "Ø¤": 2333,
      "ìķĪ": 2334,
      "fer": 2335,
      "ä»»": 2336,
      "Ġêµ¬": 2337,
      "à¥įà¤¦": 2338,
      "ÑĨÐ¸Ð¸": 2339,
      "Ġj": 2340,
      "å°Ķ": 2341,
      "ìļ´": 2342,
      "ĠØ§ÙĦØ§Ø³Øª": 2343,
      "ìķ¼": 2344,
      "²à¤Ĺ": 2345,
      "elleĠ": 2346,
      ".ĠØ£": 2347,
      "ĠÑħ": 2348,
      "æħ": 2349,
      "ä½ķ": 2350,
      "å½¼": 2351,
      "dÃ©": 2352,
      "ä»İ": 2353,
      "æĸĻ": 2354,
      "à¥Ĥà¤°": 2355,
      "éģİ": 2356,
      "ëłĪ": 2357,
      "à¥Ĥà¤¸": 2358,
      "neĠ": 2359,
      "è¨ĺ": 2360,
      "ĠØ§ÙĦØ·": 2361,
      "Ø¯ÙĬÙĨ": 2362,
      "åı¯èĥ½": 2363,
      "ãģ£ãģŁãĢĤ": 2364,
      "chi": 2365,
      "chĠ": 2366,
      "ĠÙħØ§": 2367,
      "ç§°": 2368,
      "ĠØ§ÙĦØµ": 2369,
      "ì¶": 2370,
      "à¤¹à¥ģà¤¤": 2371,
      "entr": 2372,
      "ãĥĿ": 2373,
      "à¤¾à¤ĩ": 2374,
      "ãģŁãĤģ": 2375,
      "ãĥĥãĥĹ": 2376,
      "ĠØ§ÙĦØ±": 2377,
      "ìŀĳ": 2378,
      "Ġê´Ģ": 2379,
      "à¤¨à¥ĩ": 2380,
      "æ¶": 2381,
      "ÙĤØ©": 2382,
      "dansĠ": 2383,
      "ë¦½": 2384,
      "ê¹Į": 2385,
      "ä¾ĭ": 2386,
      "æĬĢ": 2387,
      "ĠØµ": 2388,
      "ĠÑģÐ²": 2389,
      "ĠìĦľ": 2390,
      "ast": 2391,
      "åĶ": 2392,
      "ìĹĲëĬĶ": 2393,
      "éĹ´": 2394,
      "aw": 2395,
      "éħ": 2396,
      "ceĠ": 2397,
      "sonoĠ": 2398,
      "åįİ": 2399,
      "çº¦": 2400,
      "ÙĬØ¹": 2401,
      "ĠÐ¿Ð°": 2402,
      "ä¸Ģä¸ª": 2403,
      "éĽ»": 2404,
      "æŀľ": 2405,
      "æ¨©": 2406,
      "car": 2407,
      "ãģĻãģ": 2408,
      "íĥľ": 2409,
      "à¤łà¥Ģà¤ķ": 2410,
      "æ¥½": 2411,
      "ke": 2412,
      "ãĥ§": 2413,
      "äº¤": 2414,
      "Ķà¤°": 2415,
      "çĶ¢": 2416,
      "irĠ": 2417,
      "à¤ļà¥įà¤Ľ": 2418,
      "ÐµÐ½ÑĤ": 2419,
      "è¨Ģèªŀ": 2420,
      "ãģ¨ãģĦãģĨ": 2421,
      "roger.Ġ": 2422,
      "æ·": 2423,
      "ress": 2424,
      "ineĠ": 2425,
      "eĠdesĠ": 2426,
      "Ð¶Ð¸": 2427,
      "à¤¾à¤Ĺ": 2428,
      "Ġà¤ķà¤¾": 2429,
      "åı°": 2430,
      "ÑĢÐµÐ¼": 2431,
      "å°±": 2432,
      "ç½®": 2433,
      "ãĤŃãĥ£": 2434,
      "ÑģÑģ": 2435,
      "ĠÑįÑĤÐ¾": 2436,
      "ØĮĠØ£": 2437,
      "ret": 2438,
      "ÑİÑĤ": 2439,
      "à¤Ńà¥ĢĠà¤": 2440,
      "Ġê²ĥìĿ´": 2441,
      "æ¹": 2442,
      "anz": 2443,
      "itu": 2444,
      "¤Ģ": 2445,
      "æ¿": 2446,
      "Ø§Ø·": 2447,
      "ãĥªãĥ¼": 2448,
      "æĶ¶åĪ°ãĢĤ": 2449,
      "vaĠben": 2450,
      "oul": 2451,
      "Ġ199": 2452,
      "æ´»": 2453,
      "int": 2454,
      "mĠ": 2455,
      ".ĠØ§ÙĦ": 2456,
      "íĨµ": 2457,
      "éľ": 2458,
      "25": 2459,
      "iĠdiĠ": 2460,
      "ĠÑĢÐ°Ð·": 2461,
      "ĠdenĠ": 2462,
      "ãģ¾ãģŁ": 2463,
      "´Ī": 2464,
      "èĬ": 2465,
      "ê²ĥ": 2466,
      "ĠëĮĢíķľë¯¼êµŃ": 2467,
      "ä»¶": 2468,
      "æį": 2469,
      "à¤ħ": 2470,
      "Ã©ri": 2471,
      "åı¯ä»¥": 2472,
      "à¥ĥà¤¤": 2473,
      "ub": 2474,
      "eĠd'": 2475,
      "éĩĳ": 2476,
      "ãĤ²": 2477,
      "act": 2478,
      "ĠìĹĨ": 2479,
      "Ġë¬¼": 2480,
      "é¡Į": 2481,
      "icht": 2482,
      "ãĥ³ãĤ°": 2483,
      "çĬ¶": 2484,
      "eĠdu": 2485,
      "ì§Ģë§Į": 2486,
      "Ã²": 2487,
      "æĺŁ": 2488,
      "ischenĠ": 2489,
      "é¡ŀ": 2490,
      "ori": 2491,
      "ionsĠ": 2492,
      "è®¡": 2493,
      "åĳ½": 2494,
      "æĴ": 2495,
      "Ð¼Ðµ": 2496,
      "åĪĩ": 2497,
      "avec": 2498,
      "Ġìĸ´": 2499,
      "åŁİ": 2500,
      "ìĨį": 2501,
      "å°į": 2502,
      "çİĭ": 2503,
      "oth": 2504,
      "åĥ": 2505,
      "onoĠ": 2506,
      "ëĭ¨": 2507,
      "ãģĺ": 2508,
      "Ø§Ùĩ": 2509,
      "org": 2510,
      "Ð¶Ðµ": 2511,
      "co": 2512,
      "ãĥªãĤ¢": 2513,
      "Ø°Ùĩ": 2514,
      "ï¼ĮæĪĳ": 2515,
      "ĠØ§ÙĦØ¨": 2516,
      "col": 2517,
      "ãĥķãĤ": 2518,
      "ĠìĹ¬ê¸°": 2519,
      "ep": 2520,
      "so": 2521,
      "æĽ´": 2522,
      "ãĤ½": 2523,
      "ĠëĤ´": 2524,
      "aitĠ": 2525,
      "allaĠ": 2526,
      "ØĮĠÙĦ": 2527,
      "ãĥİ": 2528,
      "åħĭ": 2529,
      "ihr": 2530,
      "Ð»ÐµÐ½": 2531,
      "à¤¿à¤ª": 2532,
      "æ¤": 2533,
      "Ġ11": 2534,
      "åĳĺ": 2535,
      "ĠØ§ÙĦØªÙĬ": 2536,
      "ÑīÐ¸": 2537,
      "èī¯å¥½": 2538,
      "åĮħ": 2539,
      "èĤ²": 2540,
      "Ø¯Ùħ": 2541,
      "sid": 2542,
      "cont": 2543,
      "æ¡": 2544,
      "ilĠs": 2545,
      "ãģ§ãģĻ": 2546,
      "ëĶ": 2547,
      "è¿ĻéĩĮ": 2548,
      "arm": 2549,
      "ĠëıĻ": 2550,
      "Ã¼berĠ": 2551,
      "éĺ¿": 2552,
      "ãĥĴ": 2553,
      "Ø§Ùĭ": 2554,
      "byĠ": 2555,
      "ãĤ±": 2556,
      "ç¡": 2557,
      "ç²": 2558,
      "å¹´ï¼ī": 2559,
      "einĠ": 2560,
      "Ġ\"": 2561,
      "åŃĹ": 2562,
      "ageĠ": 2563,
      "çĩ": 2564,
      "Ġíĥ": 2565,
      "ìķĺ": 2566,
      "ãģ¦ãģĦãĤĭãĢĤ": 2567,
      "çĲĥ": 2568,
      "ØªÙĬ": 2569,
      "à¥ģà¤ķ": 2570,
      "åĦ": 2571,
      "Ð¾ÑĤÐ¾": 2572,
      "ë¬¼": 2573,
      "æ¼Ķ": 2574,
      "100": 2575,
      "íĤ": 2576,
      "ë¡ł": 2577,
      "iniĠ": 2578,
      "ÙĥÙĪÙĨ": 2579,
      "prÃ©": 2580,
      "å¯¾": 2581,
      "hab": 2582,
      "äº¬": 2583,
      "éłĺ": 2584,
      ",ĠÑģ": 2585,
      "éĿŀå¸¸": 2586,
      "Ġà¤ķà¥ģà¤Ľ": 2587,
      "22": 2588,
      "ÐºÑĥ": 2589,
      "ãĤĭãģ¨": 2590,
      "ä¸»è¦ģ": 2591,
      "arg": 2592,
      "Ġd'": 2593,
      "ê°ģ": 2594,
      "ìĹħ": 2595,
      "ÙĥÙħ": 2596,
      "hierĠ": 2597,
      "inci": 2598,
      "ìĹĪëĭ¤.": 2599,
      "nĠ": 2600,
      "ħà¤¨": 2601,
      "ĠìĨĮ": 2602,
      "æ£": 2603,
      "ĠØ¹Ø§Ùħ": 2604,
      "ì§ģ": 2605,
      "æĤ": 2606,
      "ê·": 2607,
      "ìŀħëĭĪëĭ¤.Ġ": 2608,
      "rat": 2609,
      "ĠêµŃ": 2610,
      "à¤¹à¤²": 2611,
      "ĠÐ´Ð°": 2612,
      "æĽ¸": 2613,
      "Ġà¤®à¥ģà¤Ŀ": 2614,
      "æł¼": 2615,
      "fre": 2616,
      "Ġë¬¸": 2617,
      "40": 2618,
      "rom": 2619,
      "ÐµÑĤÑģÑı": 2620,
      "ØªÙĪ": 2621,
      "à¤¾à¤°Ġà¤": 2622,
      "à¤¾à¤ķ": 2623,
      "prod": 2624,
      "åħ±åĴĮ": 2625,
      "ãĥ¢": 2626,
      "éķ·": 2627,
      "ih": 2628,
      "æ»": 2629,
      "å£«": 2630,
      "ĠÐ¼Ð°": 2631,
      "ausĠ": 2632,
      "ĠëĲĺ": 2633,
      "ÑĢÑı": 2634,
      "éĿ©": 2635,
      "åĳĬ": 2636,
      "unĠp": 2637,
      "Ġà¤ķà¥ĩĠà¤¬": 2638,
      "oneĠ": 2639,
      "ìĹŃ": 2640,
      "her": 2641,
      "èĳĹä½ľ": 2642,
      "Ã´": 2643,
      "åĨį": 2644,
      "ëį°": 2645,
      "à¥įà¤§": 2646,
      "leĠm": 2647,
      "éĤ£": 2648,
      "è±¡": 2649,
      "ĠÐ²ÑģÐµ": 2650,
      "Ø§ÙĦÙħ": 2651,
      "à¤¸à¥ĩĠà¤": 2652,
      "ĠÐ»Ð¸": 2653,
      "æĥħ": 2654,
      "gesetz": 2655,
      "à¤¨à¤¾": 2656,
      "åĸ": 2657,
      "iĠm": 2658,
      "ÑĤÑĭ": 2659,
      "ÑģÑĤÐ²ÐµÐ½": 2660,
      "ãģ¨ãģª": 2661,
      "Ð¿Ðµ": 2662,
      "ìľł": 2663,
      "ä¸¦": 2664,
      "à¤°à¥įà¤®": 2665,
      "ë°ĺ": 2666,
      "èģŀ": 2667,
      "Ø§ÙĨÙĬØ©": 2668,
      "éĸ¢": 2669,
      "all'": 2670,
      "å®Ļ": 2671,
      "Ø§Ø¶": 2672,
      "çı¾åľ¨": 2673,
      "ç¢º": 2674,
      "ì¢": 2675,
      "entoĠ": 2676,
      "ĠìĪĺĠìŀĪ": 2677,
      "éŁ": 2678,
      "Ġminut": 2679,
      "ĠØ¬ÙĬØ¯": 2680,
      "ë³¸": 2681,
      "ĠØ«": 2682,
      "à¤¨à¤¾Ġà¤": 2683,
      "ç®Ĺ": 2684,
      "çĻ½": 2685,
      "çĶµ": 2686,
      "Ø¹Øª": 2687,
      "ÙĪØ§": 2688,
      "Ġëĭ¹": 2689,
      "ï¼Įä½Ĩ": 2690,
      "Ġcap": 2691,
      "ç§į": 2692,
      "ëĤ´": 2693,
      "ÑģÐºÐ¾Ð³Ð¾": 2694,
      "vis": 2695,
      "Ġdu": 2696,
      "Ġê³ł": 2697,
      "ek": 2698,
      "à¥Ĥà¤²": 2699,
      "ëŀĺ": 2700,
      "à¤ı": 2701,
      "è¨Ī": 2702,
      "å®ĩå®Ļ": 2703,
      "çª": 2704,
      "ãģ«ãĢģ": 2705,
      "å³": 2706,
      "Ġà¤¸à¤ķ": 2707,
      "ä¸ĥ": 2708,
      "ÙĩÙĦ": 2709,
      "åŀ": 2710,
      "çīĪ": 2711,
      "à¤°à¥įà¤µ": 2712,
      "aff": 2713,
      "èį": 2714,
      "åħī": 2715,
      "imm": 2716,
      "ĠÐ´Ðµ": 2717,
      "<sub>2": 2718,
      "ĠíĽĦ": 2719,
      "aggi": 2720,
      "tim": 2721,
      "amp": 2722,
      "à¤¢": 2723,
      "ÑĩÐµÐ½": 2724,
      "Ð¿Ð¸": 2725,
      "oĠd": 2726,
      "ÙģÙĩ": 2727,
      "Ø³Ø¨": 2728,
      "Ġë§Ī": 2729,
      "orĠ": 2730,
      "ÑģÐºÐ¸Ð¹": 2731,
      "ë£Į": 2732,
      "Ġë¯¸": 2733,
      "maĠ": 2734,
      "ãĥĢ": 2735,
      "ÙĤÙĬ": 2736,
      "ë°©": 2737,
      "Ġà¤¨à¤¹à¥Ģà¤Ĥ": 2738,
      "åįł": 2739,
      "sel": 2740,
      "ï¼īãĢģ": 2741,
      "Ġìķ½": 2742,
      ",ĠÐ°": 2743,
      "à¤¾à¤ı": 2744,
      "å®ŀ": 2745,
      "ìĿ´ëĭ¤.": 2746,
      "ÑĢÐ°Ð½": 2747,
      "jetz": 2748,
      "lyĠ": 2749,
      "cond": 2750,
      "è¨Ń": 2751,
      "åĨĽ": 2752,
      "æİ¨": 2753,
      "çµĲ": 2754,
      "äºĶ": 2755,
      "åħĪ": 2756,
      "Ø§Ø²": 2757,
      "beiĠ": 2758,
      "a.": 2759,
      "beĠ": 2760,
      "ÙĤÙĦ": 2761,
      "itÃ©": 2762,
      "åıį": 2763,
      "å¸Ŀ": 2764,
      "comp": 2765,
      "èº": 2766,
      "Ġë¶Ħ": 2767,
      "ĠÐ´Ð¾": 2768,
      "à¤¾Ġà¤¹à¥Ĥà¤ģ": 2769,
      "çĿĢ": 2770,
      "stĠ": 2771,
      "ãĥĻ": 2772,
      "ìķĮê²łìĬµëĭĪëĭ¤.Ġ": 2773,
      "21": 2774,
      "min": 2775,
      "Ø±Ùī": 2776,
      "å®Ĺ": 2777,
      "Ġpi": 2778,
      "70": 2779,
      "non": 2780,
      "Ġà¤¹à¥Ī,Ġà¤": 2781,
      "ack": 2782,
      "èª¿": 2783,
      "ĠÙĩØ°Ø§": 2784,
      "ĠØ§ÙĦØ¢ÙĨ": 2785,
      "à¤¾Ġà¤ľ": 2786,
      "íĽĦ": 2787,
      "Ġë°Ķ": 2788,
      "Ġsp": 2789,
      "orm": 2790,
      "é«Ķ": 2791,
      "ĠÐ¼Ðµ": 2792,
      "è®¤": 2793,
      "íĳľ": 2794,
      "Ġver": 2795,
      "ileĠ": 2796,
      "ĠØ£ÙĬ": 2797,
      "ÐºÐ¾Ð²": 2798,
      "princi": 2799,
      "éĢł": 2800,
      "ĠìĬ¤": 2801,
      "war": 2802,
      "çŁ³": 2803,
      "åĪĹ": 2804,
      "èĴĻ": 2805,
      "dem": 2806,
      "à¤Ĥà¤¡": 2807,
      "enĠsi": 2808,
      "ÐºÐµ": 2809,
      "Ġìĭ¤": 2810,
      "abbi": 2811,
      "ë¥¸": 2812,
      "éĻ¢": 2813,
      "ãĤ¸ãĥ£": 2814,
      "èī²": 2815,
      "ê´Ģ": 2816,
      "ĠØ§ÙĦÙĪ": 2817,
      "Ð½Ð¾Ðµ": 2818,
      "ãĤ´": 2819,
      "Ð½Ð¾Ð²": 2820,
      "ê²½": 2821,
      "ainten": 2822,
      "i'": 2823,
      "èı¯": 2824,
      "ĠâĢĵ": 2825,
      "leg": 2826,
      "è¾¾": 2827,
      "ÙĬØ§Øª": 2828,
      "amer": 2829,
      "45": 2830,
      "çº¿": 2831,
      "ÙĪØ¨": 2832,
      "esc": 2833,
      "íĹ": 2834,
      "ä¾Ĩ": 2835,
      "yst": 2836,
      "ĠÙĩÙĪ": 2837,
      "ech": 2838,
      "ØªØ±": 2839,
      "Ð½Ð°Ñı": 2840,
      "Ġà¤Ĩà¤ªà¤ķ": 2841,
      "éļĽ": 2842,
      "å¢ŀ": 2843,
      "<sub>2</sub>": 2844,
      "itÃł": 2845,
      "ĠØ¨Ø¹Ø¯": 2846,
      ",Ġà¤¸": 2847,
      "tiĠ": 2848,
      "ĠëĶ": 2849,
      "åĵ²": 2850,
      "å¢ĥ": 2851,
      "Ð»Ñĥ": 2852,
      "princip": 2853,
      "ç¸": 2854,
      "e-": 2855,
      "ÐºÐ»Ñİ": 2856,
      "ãģ§ãģį": 2857,
      "ĠØªÙħ": 2858,
      "à¥ĭà¤ĤĠà¤®à¥ĩà¤Ĥ": 2859,
      "ãĤ¬": 2860,
      "Ġ15": 2861,
      "ĺĲ": 2862,
      "Ġvi": 2863,
      "ĠØ°ÙĦÙĥ": 2864,
      ",ĠÐ¾": 2865,
      "eau": 2866,
      "å¸ĥ": 2867,
      "temp": 2868,
      "åĲ¬": 2869,
      "ataĠ": 2870,
      "ï¼īãĢĤ": 2871,
      "ais": 2872,
      "ii": 2873,
      "ãģļ": 2874,
      "ali": 2875,
      "Ġsch": 2876,
      "ĠØ£ÙĪ": 2877,
      "ãĥ©ãĤ¤": 2878,
      "ç¥ŀ": 2879,
      "loĠ": 2880,
      "ĠÐ½Ð¸": 2881,
      "é»¨": 2882,
      "cl": 2883,
      "ersĠ": 2884,
      "enĠundĠ": 2885,
      "ÙĥØ§ÙĨ": 2886,
      "à¥įà¤Łà¥įà¤°": 2887,
      "ìĿ¼Ġ-": 2888,
      "ç¨®": 2889,
      "Ġì¢ĭ": 2890,
      "unk": 2891,
      "æĦŁ": 2892,
      "ĠdiĠ": 2893,
      "éĢĻ": 2894,
      "fÃ¼": 2895,
      "ÙĤØ·": 2896,
      "à¤¢à¤¼": 2897,
      "ert": 2898,
      "ĠØ§ÙĦØ°": 2899,
      "à¤¾Ġà¤¹à¥Īà¥¤Ġà¤": 2900,
      "æŃ£å¸¸": 2901,
      "iÃ¨": 2902,
      "ĠÐ²Ð¾": 2903,
      "ect": 2904,
      "nonĠ": 2905,
      "Ġz": 2906,
      "æŀĹ": 2907,
      "èĹ": 2908,
      "ĠÑģÐ¸": 2909,
      "ÙĦÙģ": 2910,
      "ateĠ": 2911,
      "à¥ĢĠà¤ķ": 2912,
      "çļĦãģª": 2913,
      "ãģ¾ãģĽ": 2914,
      "èĢĥ": 2915,
      "ordnung": 2916,
      "ÑĤÐ¾Ð¼": 2917,
      "æ¤į": 2918,
      "mitĠ": 2919,
      "à¤¿à¤ľ": 2920,
      "iteĠ": 2921,
      "Ġë§Į": 2922,
      "æŁ": 2923,
      "Ġ:": 2924,
      "ìķĮê²łìĬµëĭĪëĭ¤.": 2925,
      "ĠÐºÐ¾Ð½": 2926,
      "Ã¤n": 2927,
      "ĠØ§ÙĦØ§Ø³ØªÙĦØ§Ùħ": 2928,
      "Ð¾Ðµ": 2929,
      "à¤¿à¤µ": 2930,
      "ãģĬãĤĬãĢģ": 2931,
      "ĵà¤Ĥ": 2932,
      "à¤°à¤¿à¤ķ": 2933,
      "Ġà¤®à¤¹": 2934,
      "è¡ĵ": 2935,
      "Ð³Ð°": 2936,
      "à¥ĢĠà¤¸": 2937,
      "l'h": 2938,
      "è®¾": 2939,
      "çĭ": 2940,
      "Ã¼ber": 2941,
      "ãģĵãģ¡ãĤīãģ¯": 2942,
      "å¹¿": 2943,
      "ê³ł,Ġ": 2944,
      "ØªÙħĠØ§ÙĦØ§Ø³ØªÙĦØ§Ùħ": 2945,
      "ãĥį": 2946,
      "rest": 2947,
      "ãĢĤæĪĳä»¬": 2948,
      "ĠØ¥ÙĨ": 2949,
      "æ²¡": 2950,
      "ìłģìľ¼ë¡ľ": 2951,
      "æĢ»": 2952,
      "ĠÑĤÐ°": 2953,
      "eux": 2954,
      "à¤Ńà¤Ĺ": 2955,
      "Ġìļ°ë¦¬ëĬĶ": 2956,
      "¶Į": 2957,
      "oderĠ": 2958,
      "ÙĪÙĦØ©": 2959,
      "verstanden,Ġ": 2960,
      "à¥Ģà¤¤": 2961,
      "ØĮĠÙĥ": 2962,
      "orn": 2963,
      "Ã©l": 2964,
      "ä¸Ĭæµ·": 2965,
      "jetztĠ": 2966,
      "Ð²ÐµÑĢ": 2967,
      "tro": 2968,
      "ear": 2969,
      "æ¸©": 2970,
      "èº«": 2971,
      "ahr": 2972,
      "ĠÐ¿Ð¾Ñģ": 2973,
      "23": 2974,
      "Â°": 2975,
      "Ã¶n": 2976,
      "Ġà¤¡": 2977,
      "å®Ł": 2978,
      "ìĸĳ": 2979,
      "ef": 2980,
      "mo": 2981,
      "ition": 2982,
      "enĠs": 2983,
      "æĶ¯": 2984,
      "à¤¾à¤¶": 2985,
      "ĠÐºÐ¾Ð¼": 2986,
      "Ġê³Ħ": 2987,
      "from": 2988,
      "ìĪ": 2989,
      ".ĠÑı": 2990,
      "æ°Ĺ": 2991,
      "æĶ¿æ²»": 2992,
      "ĠÐ²ÑĢÐµÐ¼": 2993,
      "irc": 2994,
      "bo": 2995,
      "ly": 2996,
      "wor": 2997,
      "å·Ŀ": 2998,
      "èĦ": 2999,
      "rech": 3000,
      "ĠÐ²Ð¸": 3001,
      "ìĹĲê²Į": 3002,
      "å°¼": 3003,
      "ĠìĤ¬ìļ©": 3004,
      "ï¼Įåľ¨": 3005,
      "íķ¨": 3006,
      "ç´Ģ": 3007,
      "ÑģÑĤÐ²Ð°": 3008,
      "Ġ'": 3009,
      "è¿Ĳ": 3010,
      "ëł¹": 3011,
      "ç¯": 3012,
      "ĠÐ²Ð¾Ð¹": 3013,
      "Ġà¤ķà¥ĩĠà¤ª": 3014,
      "ìŀĦ": 3015,
      "æ¨¡": 3016,
      "íķĺìĺĢëĭ¤.": 3017,
      "Ġà¤ı": 3018,
      "åķıé¡Į": 3019,
      "Ð±Ð¸": 3020,
      "ëĬĶĠê²ĥ": 3021,
      "ëĵ¤ìĿ´": 3022,
      "Ġìº¡": 3023,
      "hf": 3024,
      "¬ë¦¬": 3025,
      "åľ°åĮº": 3026,
      "Ġà¤ĩ": 3027,
      "ÙģÙĩÙĪÙħ": 3028,
      "quel": 3029,
      "ãģªãģŁ": 3030,
      "Ġì§Ħ": 3031,
      "plusĠ": 3032,
      "Ġà¤¸à¤®à¤¯": 3033,
      "åľŁ": 3034,
      "Ġgr": 3035,
      "íĤ¤": 3036,
      "mar": 3037,
      "nu": 3038,
      "ĠÑĨ": 3039,
      "ãģĦãĢĤ": 3040,
      "ÑĩÐ°Ñģ": 3041,
      "ìŀħëĭĪëĭ¤.": 3042,
      "icaĠ": 3043,
      "leĠp": 3044,
      "ìłģìĿ¸": 3045,
      "j'": 3046,
      "ç¹": 3047,
      "Ð¶Ð°": 3048,
      "ç´ł": 3049,
      "ëĵ¤ìĿĢ": 3050,
      "ê°ľ": 3051,
      "íĺķ": 3052,
      "ĠíĶĦ": 3053,
      "ÑģÑĥ": 3054,
      "æĹ©": 3055,
      "izz": 3056,
      "Ġê±°": 3057,
      "æ¯į": 3058,
      "å£°": 3059,
      "ĠëıĦ": 3060,
      "à¥ĩĠà¤®": 3061,
      "Ġ198": 3062,
      "íĻķ": 3063,
      "ëįĺ": 3064,
      "ÑĢÐ¾ÑģÑģÐ¸": 3065,
      "à¤¤à¥įà¤¤": 3066,
      "Ð·Ð¸": 3067,
      ",ĠìĿ´": 3068,
      "now": 3069,
      "íħ": 3070,
      "çİĩ": 3071,
      "ÙģØ¶": 3072,
      "æķ¸": 3073,
      "einenĠ": 3074,
      "Ø¹ÙĦ": 3075,
      "Ġà¤ķà¥Īà¤ª": 3076,
      "ĠØ¶": 3077,
      "Ø¹Ø¶": 3078,
      "çµĦ": 3079,
      "Ġë°°": 3080,
      "ĠØ¬Ø¯": 3081,
      "dr": 3082,
      "Ø§Ø³": 3083,
      "ØĮĠÙģ": 3084,
      "ĠìķĮ": 3085,
      "ãĤıãĤĮ": 3086,
      "ãĤ²ãĥ¼ãĥł": 3087,
      "ãĥ¯": 3088,
      "à¤¿à¤¦": 3089,
      "ĠÐ²Ð°Ñģ": 3090,
      "dassĠ": 3091,
      "o<sub>2</sub>": 3092,
      "pt": 3093,
      "ris": 3094,
      "ç®¡": 3095,
      "pour": 3096,
      "¨à¤¹à¥Ģà¤Ĥ": 3097,
      "ëĳĲ": 3098,
      "íĦ´": 3099,
      "Ð°Ð½Ð¸Ñı": 3100,
      "wur": 3101,
      "sev": 3102,
      "çĩĥ": 3103,
      "æł¡": 3104,
      "ĠíĻķ": 3105,
      "ãģ»": 3106,
      "ãĥ´": 3107,
      "we'": 3108,
      "ç±»": 3109,
      "ãģ¾ãģĽãĤĵ": 3110,
      "łà¥Ģà¤ķ": 3111,
      "Ð±Ð°": 3112,
      "åĽ½å®¶": 3113,
      "åŀĭ": 3114,
      "ãģĴ": 3115,
      "ĠíĹ": 3116,
      "è©±": 3117,
      "é¦ĸ": 3118,
      "ìĥĿ": 3119,
      "ç§»": 3120,
      "sol": 3121,
      "à¤ķà¤¾à¤°": 3122,
      "esĠdeĠ": 3123,
      "à¤ªà¤¨": 3124,
      "ØµÙĦ": 3125,
      "à¤¤à¤¾": 3126,
      "ë²ķ": 3127,
      "Ġì¹": 3128,
      "Ø§ÙĨÙĬ": 3129,
      "é¤": 3130,
      "Ã©g": 3131,
      "ĠÐ´Ð»Ñı": 3132,
      "ë°ľ": 3133,
      "à¥ĩĠà¤ªà¤¾à¤¸": 3134,
      "ãģ¾ãģ§": 3135,
      "ä¸»ç¾©": 3136,
      "ç·ļ": 3137,
      "æ´¾": 3138,
      ",ĠandĠ": 3139,
      "Ġ12": 3140,
      "æŃĮ": 3141,
      "à¥ĩà¤µà¤¨": 3142,
      "geminiĠ": 3143,
      "ì¦": 3144,
      "ä¼ł": 3145,
      "fu": 3146,
      "seĠ": 3147,
      "æ¢": 3148,
      "ãĢħ": 3149,
      "Ð¾Ð´Ñĥ": 3150,
      "èĻ": 3151,
      "ìĺģ": 3152,
      "Ġìļ°ì£¼": 3153,
      "Ø¶Ø¹": 3154,
      "ĠÙĬÙħ": 3155,
      ".ĠÐ¾": 3156,
      "µľ": 3157,
      "éĥ¨åĪĨ": 3158,
      "§à¥": 3159,
      "èĪ±": 3160,
      "âĢĶâĢĶ": 3161,
      "é£Ľ": 3162,
      "éĵ": 3163,
      "ĠØº": 3164,
      ".Ġc": 3165,
      "Ġst": 3166,
      "ãģ³": 3167,
      "erc": 3168,
      "ÙĬØ³": 3169,
      "à¥įà¤°à¥Ģ": 3170,
      "íĮĮ": 3171,
      "åĮ»": 3172,
      "æ°ĳæĹı": 3173,
      "ĠÐ¶": 3174,
      "indi": 3175,
      "ãģ«ãģĬ": 3176,
      "ä¹ī": 3177,
      ".0": 3178,
      "ĠandĠ": 3179,
      "à¤¯à¤¹": 3180,
      "ign": 3181,
      "å¡": 3182,
      "Ġun": 3183,
      "eng": 3184,
      "Ø¹Ø±": 3185,
      "æ°Ķ": 3186,
      "æĽ²": 3187,
      "abbiamoĠ": 3188,
      "jour": 3189,
      "íĨ": 3190,
      "ÙħØ©": 3191,
      "laĠcap": 3192,
      "ìĭ¤": 3193,
      "pasĠ": 3194,
      "à¤¸à¥įà¤¤": 3195,
      "ĠÙħÙĨĠØ§ÙĦÙħ": 3196,
      "ÑħÐ¾Ð´Ð¸": 3197,
      "ĠìļĶ": 3198,
      "ayĠ": 3199,
      "ì¤ĳ": 3200,
      "ï¼ĮèĢĮ": 3201,
      "ĠÑģÐ¾Ð²": 3202,
      "anteĠ": 3203,
      "ãģ§ãģĤãĤĭ": 3204,
      "vent": 3205,
      "astronaut": 3206,
      "à¤°à¤£": 3207,
      "Ġëħ¸": 3208,
      "ĠÐ±Ñĥ": 3209,
      "à¤·à¥įà¤Ł": 3210,
      "ìħ": 3211,
      "æĵį": 3212,
      "à¤¾à¥¤Ġà¤": 3213,
      "endĠ": 3214,
      "à¤¾à¤ĵà¤Ĥ": 3215,
      "æ§ĭ": 3216,
      "åĳ¨": 3217,
      "9å¹´": 3218,
      "éĮ": 3219,
      "à¥¤Ġà¤¹à¤®": 3220,
      "Ð±Ð¾": 3221,
      "çº§": 3222,
      "åķĨ": 3223,
      "dur": 3224,
      "re,Ġ": 3225,
      "à¥ĩà¤¤à¥įà¤°": 3226,
      "nach": 3227,
      "Ġà¤ķà¥ī": 3228,
      "ĠÙģÙĬĠØ§ÙĦÙħ": 3229,
      "bur": 3230,
      "ĠÙĪØ£": 3231,
      "ãĥĺ": 3232,
      "aĠl": 3233,
      "ĠÑģÐµ": 3234,
      "ëĿ¼ê³ł": 3235,
      "aux": 3236,
      "æĻ®": 3237,
      "Ġë§Ĳ": 3238,
      "çĦ¡": 3239,
      "ĠÐ¿ÑĢÐµÐ´": 3240,
      "ï¼Ł": 3241,
      "ØŃØ±": 3242,
      "åł±": 3243,
      "iĠc": 3244,
      "ĠìĦ±": 3245,
      "ê±´": 3246,
      "ìłĲ": 3247,
      "capĠcom": 3248,
      "Ġà¤ķà¤°Ġà¤°à¤¹": 3249,
      "ĠìĥĿ": 3250,
      "schaf": 3251,
      "ju": 3252,
      "ãĤ¶": 3253,
      "ÙħÙģÙĩÙĪÙħ": 3254,
      "æĭ¬": 3255,
      "æķĻèĤ²": 3256,
      "Ġà¤ĸ": 3257,
      "Ġà¤Ł": 3258,
      "ank": 3259,
      "Ĺà¤¯": 3260,
      "å¤®": 3261,
      "íķĺê¸°": 3262,
      ",Ġê·¸": 3263,
      "Ð½Ð¾Ð¼": 3264,
      "ØŃÙĨ": 3265,
      "ãĥķãĤ£": 3266,
      "ëĶĶ": 3267,
      "erst": 3268,
      "ischeĠ": 3269,
      "avonsĠ": 3270,
      "å·´": 3271,
      "åİĨ": 3272,
      "Ø§Ø¦Ø¯": 3273,
      "fi": 3274,
      ",Ġà¤¯à¤¹": 3275,
      "æķ´": 3276,
      "à¤¿à¤¯à¥ĭà¤Ĥ": 3277,
      "è³ª": 3278,
      "Ġbe": 3279,
      "ÑģÐ°": 3280,
      "ortĠ": 3281,
      "Ġìŀ¥": 3282,
      "ĠØ¨ÙĬÙĨ": 3283,
      "å±ħ": 3284,
      "Ġà¤ķà¥ĩĠà¤¸à¤¾à¤¥": 3285,
      "ØªØŃ": 3286,
      "ìĹ°": 3287,
      "ä¸Ńå¿ĥ": 3288,
      "ationsĠ": 3289,
      "ĠÙĩØ°Ùĩ": 3290,
      "ÙĪØ¬": 3291,
      "ãģĤãģªãģŁ": 3292,
      "Ġà¤ħà¤ļà¥įà¤Ľ": 3293,
      "ÙĨØ¯": 3294,
      "åħ¶ä¸Ń": 3295,
      "äººæ°ĳåħ±åĴĮ": 3296,
      "bas": 3297,
      "ãĥľ": 3298,
      "åĳ¼": 3299,
      "Ġà¤²à¤¿à¤¯à¤¾": 3300,
      "Ð²Ñĭ": 3301,
      "uteĠ": 3302,
      "ungenĠ": 3303,
      "åİ¿": 3304,
      "ĠÐ¾Ðº": 3305,
      "ĠÙĦØ§": 3306,
      "ott": 3307,
      "åĪ¥": 3308,
      "fo": 3309,
      "ĠØ§ÙĦÙĦ": 3310,
      "out": 3311,
      "ç¿": 3312,
      "à¤®à¤¾à¤¨": 3313,
      "å±ŀ": 3314,
      "Ġà¤ķà¥įà¤·": 3315,
      "eĠdi": 3316,
      "Ð¾Ð½Ð°": 3317,
      "íİ": 3318,
      "ãģŁãģ¡": 3319,
      "åįĬ": 3320,
      "ÑĪÐ°": 3321,
      "Ð³Ð¸": 3322,
      "ãĤ·ãĤ¢": 3323,
      "okay.Ġ": 3324,
      "à¤¾à¤¬": 3325,
      "ĠÐ²Ðµ": 3326,
      "Ð¼Ñĭ": 3327,
      "å¥³": 3328,
      "haveĠ": 3329,
      "ÑĢÐ¾Ð¼": 3330,
      "à¤¾à¤£": 3331,
      "åĩĨ": 3332,
      "æİ§": 3333,
      "à¤Ĥà¤¤à¤°à¤¿à¤ķ": 3334,
      "emb": 3335,
      "à¥ģà¤²": 3336,
      "ä¸Ńå¤®": 3337,
      "Ġà¤²à¤Ĺ": 3338,
      "igh": 3339,
      "rel": 3340,
      "íĶ¼": 3341,
      "ÙĬØª": 3342,
      "toĠtheĠ": 3343,
      "bit": 3344,
      "Ã©n": 3345,
      "Ġà¤¹à¥ģà¤": 3346,
      "Ã¤r": 3347,
      "æ³¢": 3348,
      "inu": 3349,
      "iĠdel": 3350,
      "proc": 3351,
      "ãĥļ": 3352,
      "åīĩ": 3353,
      "ë²Ħ": 3354,
      "ÙģØ±": 3355,
      "Ã©c": 3356,
      "itsĠ": 3357,
      "æ±ī": 3358,
      "Ġë¬´": 3359,
      "æ¿Ł": 3360,
      "æļ": 3361,
      "abil": 3362,
      "Ø´Ø±": 3363,
      "Ġìĭł": 3364,
      "çį": 3365,
      "Ġà¤®à¥ĩà¤°": 3366,
      "ÃłĠl'": 3367,
      "åĵ¡": 3368,
      "ä¸¤": 3369,
      "ÑĥÐ´Ð°": 3370,
      "Ð»ÐµÐ½Ð¸Ñı": 3371,
      "Ġìĺģ": 3372,
      "è¶ħ": 3373,
      "Ġà¤ķà¥įà¤¯à¤¾Ġà¤": 3374,
      "veĠ": 3375,
      "agn": 3376,
      "Ã¤t": 3377,
      "ãĢįãģ¨": 3378,
      "åıª": 3379,
      "åĵ²åŃ¦": 3380,
      "ĠÑĢÐ¾ÑģÑģÐ¸": 3381,
      "Ġà¤Ĩà¤ª": 3382,
      "íķĺê²Į": 3383,
      "æīĵ": 3384,
      "po": 3385,
      "ÙĬØ¨": 3386,
      "à¥įà¤¨": 3387,
      "à¥įà¤ŀ": 3388,
      "ÑĥÑİ": 3389,
      "Ġà¤ªà¥įà¤°à¤¤": 3390,
      "von": 3391,
      "å¹´ä»£": 3392,
      "ä»¥åıĬ": 3393,
      "ãĤ®": 3394,
      "alleĠ": 3395,
      "Ø§Ø«": 3396,
      "?Ġ": 3397,
      "å¿ħ": 3398,
      "Ã¶r": 3399,
      "éĻ¤": 3400,
      "ê¹Įì§Ģ": 3401,
      "edi": 3402,
      "Ġë°ĺ": 3403,
      "à¤¾,Ġà¤": 3404,
      "à¤Ĥà¤§": 3405,
      "ä½İ": 3406,
      "ìĹĲĠìŀĪ": 3407,
      "é£ŀ": 3408,
      "à¥ģà¤¦": 3409,
      "æºĸ": 3410,
      ".ĠÐ¼Ñĭ": 3411,
      "ãĥ³ãĢģ": 3412,
      "æĪĺ": 3413,
      "åįĩ": 3414,
      "liber": 3415,
      "sontĠ": 3416,
      "ë¶ĢíĦ°": 3417,
      "ãĤ»ãĥ«": 3418,
      "ä¼ĳ": 3419,
      "ãģĤãĤĭ": 3420,
      "æĿ¡": 3421,
      "¨ìĸ´": 3422,
      "Ø´ÙĥÙĦ": 3423,
      "à¤Ĥà¤¤à¤°à¤¿à¤ķà¥įà¤·": 3424,
      "gliĠ": 3425,
      "ãĤį": 3426,
      "à¤¿à¤·": 3427,
      ",ĠÑįÑĤÐ¾": 3428,
      "èŃ°": 3429,
      "ç¡®": 3430,
      "ÙģÙĨ": 3431,
      "Ø§Ø±Ø©": 3432,
      "ĠìĽĲ": 3433,
      "sh": 3434,
      "ä¸Ńåįİ": 3435,
      "ãģĹãģŁãĢģ": 3436,
      "ë¸Ĳ": 3437,
      ",ĠÐ½Ð°": 3438,
      "ÙĬØ¡": 3439,
      "å¤ĩ": 3440,
      "ĠÐ½Ð¾": 3441,
      "ĠÙĦÙħ": 3442,
      "ãģĻãģ¹": 3443,
      "anci": 3444,
      "åŃĺåľ¨": 3445,
      "åĮħæĭ¬": 3446,
      "Ã¬": 3447,
      "ĠcapĠcom": 3448,
      "wieĠ": 3449,
      "ãĢĤåľ¨": 3450,
      "ìĹĪëĭ¤.Ġ": 3451,
      "ãĤ·ãĥ¥": 3452,
      "Ġëªħ": 3453,
      "ç¶ĵæ¿Ł": 3454,
      "Ġíĳľ": 3455,
      "æĭī": 3456,
      "lor": 3457,
      "à¤¿à¤ĸ": 3458,
      "194": 3459,
      "Ð»Ð¸ÑģÑĮ": 3460,
      "ogr": 3461,
      "annoĠ": 3462,
      "å¤Ħ": 3463,
      "éĻ¸": 3464,
      "Ġë§¤": 3465,
      "ĠÑĢÑĥ": 3466,
      "å¼ķ": 3467,
      "ĠÙĥØ§ÙĨ": 3468,
      "Ġíķ¨": 3469,
      "èĴĻåı¤": 3470,
      "åħļ": 3471,
      "ëħ¸": 3472,
      "Ġ30": 3473,
      "à¤§à¤¿à¤ķ": 3474,
      "ç¶ļ": 3475,
      "ru": 3476,
      "ç¼": 3477,
      "ľ´": 3478,
      "Ġà¤§": 3479,
      "196": 3480,
      "Ð¾Ð½Ñı": 3481,
      "à¥ĭà¤ľ": 3482,
      "ì§Ī": 3483,
      "ãĤ«ãĥĹ": 3484,
      "éŁ³æ¥½": 3485,
      "$$": 3486,
      "hoĠ": 3487,
      "Ð¿ÑĢÐ°Ð²": 3488,
      "è¿ĺ": 3489,
      "à¤¾à¤¸à¥įà¤¤": 3490,
      "æŁ¥": 3491,
      "ĠØ§ÙĦØ«": 3492,
      "æ¸¯": 3493,
      "Ġà¤¤à¤ķ": 3494,
      "vir": 3495,
      "inn": 3496,
      "ĠØ§Ø³Øª": 3497,
      "íķľëĭ¤.": 3498,
      "ĠÐ¼ÐµÐ½": 3499,
      "éĴŁ": 3500,
      "ilsĠ": 3501,
      "ilĠm": 3502,
      "èĩªçĦ¶": 3503,
      "é£Ľè¡Į": 3504,
      "24": 3505,
      "ÙĪØ³": 3506,
      "ØªÙģ": 3507,
      "Ġìŀĺ": 3508,
      "æ¹ĸ": 3509,
      "y.Ġ": 3510,
      "Ã©eĠ": 3511,
      "tra": 3512,
      "åı·ï¼Į": 3513,
      "osĠ": 3514,
      "à¤¾Ġà¤°à¤¹": 3515,
      "èĩªçĶ±": 3516,
      "åĤĻ": 3517,
      "ĠundĠ": 3518,
      "Ð»ÐµÐ½Ð¸Ðµ": 3519,
      "Ø¬Ùħ": 3520,
      "comeĠ": 3521,
      "ç¬¬ä¸Ģ": 3522,
      "eiĠ": 3523,
      "o.": 3524,
      "Ġà¤ķà¤¿à¤¯à¤¾Ġà¤": 3525,
      "ĠìłĢ": 3526,
      "ë©Ķ": 3527,
      "Ð°Ð½Ð¸Ðµ": 3528,
      "Ġìĸĳ": 3529,
      "ÙĬØ©ĠÙĪ": 3530,
      "ĠìķĪ": 3531,
      "Ġê²°": 3532,
      "à¥¦": 3533,
      "icoĠ": 3534,
      "éĶ": 3535,
      "oup": 3536,
      "åį³": 3537,
      "ì°¨": 3538,
      "ĠëĶ°": 3539,
      "à¤¿à¤ļ": 3540,
      "çĶŁçī©": 3541,
      "ãģķãĤĮãģŁ": 3542,
      "à¤¨à¥įà¤¹": 3543,
      "ĠëĮĢíķľë¯¼êµŃìĿĺ": 3544,
      "ĠdasĠ": 3545,
      "ezĠ": 3546,
      "çĸ": 3547,
      "Ġê·": 3548,
      "eĠderĠ": 3549,
      "ĠÐ½Ð°Ñģ": 3550,
      "7å¹´": 3551,
      "unter": 3552,
      "aur": 3553,
      "Ø«Ø±": 3554,
      "ãģĹãģ¦ãģĦãĤĭãĢĤ": 3555,
      "ç§ĳåŃ¦": 3556,
      ",ĠÐ¿": 3557,
      "cop": 3558,
      "ew": 3559,
      "kl": 3560,
      "ÑıÑĤ": 3561,
      "ÙĤØ±": 3562,
      "olit": 3563,
      "ØĮĠÙĪØ§ÙĦ": 3564,
      "Ġê¹": 3565,
      "çľŁ": 3566,
      "ãĤ»ãĥĸ": 3567,
      "åŃ«": 3568,
      "Ġì¶Ķ": 3569,
      "ftĠ": 3570,
      "ê¶Į": 3571,
      ".ĠÙĦ": 3572,
      "æµİ": 3573,
      "rau": 3574,
      "è©ŀ": 3575,
      "æ²¡æľī": 3576,
      "8å¹´": 3577,
      "ÙĥØ³": 3578,
      "ÑĮÑİ": 3579,
      "trÃ¨sĠ": 3580,
      "ĠØªØŃ": 3581,
      "ll": 3582,
      "ardĠ": 3583,
      "Ġ17": 3584,
      "å¼Ģå§ĭ": 3585,
      "pass": 3586,
      "ãĥĦ": 3587,
      "à¤¿à¤Ĥà¤Ĺ": 3588,
      "à¥Ģà¤ļ": 3589,
      "Ùİ": 3590,
      "Ġre": 3591,
      "æĪ¦": 3592,
      "æĺł": 3593,
      "ãģĤãĤĬ": 3594,
      "ghtĠ": 3595,
      "ĠìĦ¸ë¸Ĳ": 3596,
      "ĠÑģÑĤÐ°": 3597,
      ",ĠÑı": 3598,
      "ëĬ¥": 3599,
      "éģĭ": 3600,
      "weĠ": 3601,
      ".ĠÑģ": 3602,
      "Ø©ĠÙģÙĬ": 3603,
      "ãĥĨãĤ£": 3604,
      "ãģ«ãĤĪãģ£ãģ¦": 3605,
      "ĠíĮĮ": 3606,
      "ÙĥØ±": 3607,
      "ism": 3608,
      "å®ĺ": 3609,
      "ë¡Ŀ": 3610,
      "ÙĬÙģ": 3611,
      "ĠìĹŃ": 3612,
      "bell": 3613,
      "asc": 3614,
      "onĠtheĠ": 3615,
      "der": 3616,
      "ĠØ²": 3617,
      "åĿĩ": 3618,
      "æħĭ": 3619,
      "æ¤įçī©": 3620,
      "enĠsieĠ": 3621,
      "Ġsu": 3622,
      "Ġpar": 3623,
      "ì¹´": 3624,
      "ÑģÐºÐ¸Ñħ": 3625,
      "å³¶": 3626,
      "éĩİ": 3627,
      "è®º": 3628,
      "26": 3629,
      "eraĠ": 3630,
      "ish": 3631,
      "æŃ£åľ¨": 3632,
      "90": 3633,
      "Ø±Ø¯": 3634,
      "atedĠ": 3635,
      "embr": 3636,
      "avecĠ": 3637,
      "Ġà¤®à¥ģà¤Ŀà¥ĩĠà¤": 3638,
      "èģŀãģĵ": 3639,
      "toutĠ": 3640,
      "uni": 3641,
      "ãģ«ãģ¤": 3642,
      "ichĠhab": 3643,
      "ÑģÐºÐ°": 3644,
      "ĠÙĤØ¨ÙĦ": 3645,
      "Ø³ÙħØ¹": 3646,
      "4,Ġ": 3647,
      "8,Ġ": 3648,
      "bil": 3649,
      "oiĠ": 3650,
      "Ø©ĠÙħ": 3651,
      "à¤¤à¥Ģ": 3652,
      "ÑģÑĤÐ°Ð½": 3653,
      "æĪ°": 3654,
      "åİ»": 3655,
      "å§Ķ": 3656,
      "ĠØ®ÙĦ": 3657,
      "ĠëįĶ": 3658,
      "à¤¾à¤·à¥įà¤Łà¥įà¤°": 3659,
      "ĠÙĬÙħÙĥÙĨ": 3660,
      "Ð¼ÐµÐ½": 3661,
      "à¤®à¥ģà¤": 3662,
      "å°Ħ": 3663,
      "à¤¾Ġà¤¹à¥Īà¥¤": 3664,
      "çĲĨåŃ¦": 3665,
      "friendshipĠseven,Ġ": 3666,
      "à¤ķà¥ĩĠà¤": 3667,
      "Ð½Ð¾ÑģÑĤÑĮ": 3668,
      "ĠØ§ÙĦØªØŃ": 3669,
      "à¥ĢĠà¤¬": 3670,
      "åº§": 3671,
      "ÐµÐ¹ÑĩÐ°Ñģ": 3672,
      "film": 3673,
      "ØªØ¨": 3674,
      "ìľ¼ë©°,Ġ": 3675,
      "à¤¿à¤Ĺ": 3676,
      "å¤±": 3677,
      "ì¸": 3678,
      "ÑĤÐ¾Ð²": 3679,
      "ä½ı": 3680,
      "ãģĻãĤĭãĢĤ": 3681,
      "ÑģÐºÐ°Ñı": 3682,
      "Ġà¤°à¥Ĥà¤ª": 3683,
      "ç±³": 3684,
      "oin": 3685,
      "pres": 3686,
      "ÑĨÐ°": 3687,
      "Ð½ÑĭÐ¼": 3688,
      "ä½ľåĵģ": 3689,
      "nichtĠ": 3690,
      "ator": 3691,
      "åħ¨åĽ½": 3692,
      "ĠØ¹ÙĨØ¯": 3693,
      "bar": 3694,
      "Ð´ÐµÑĤ": 3695,
      "ìĹĲĠëĮĢíķľ": 3696,
      "Ð·Ñĭ": 3697,
      "éĢģ": 3698,
      "Ġëĭ¨": 3699,
      "ath": 3700,
      "ìł¸": 3701,
      "Ð¿Ñĥ": 3702,
      "Ã¶nn": 3703,
      "sig": 3704,
      "à¥Ĥà¤Ł": 3705,
      ",ĠÐºÐ¾ÑĤÐ¾": 3706,
      "æį®": 3707,
      "īà¤¸": 3708,
      "ÙĪØ§ÙĦÙĬ": 3709,
      "emper": 3710,
      "ĠØ¨ÙĨ": 3711,
      "iesĠ": 3712,
      "ãĢĤä½ł": 3713,
      "æĢģ": 3714,
      "ãĤ·ãĥ§": 3715,
      "occ": 3716,
      "à¤¸à¤®à¤ĿĠà¤²à¤¿à¤¯à¤¾": 3717,
      "fir": 3718,
      "vic": 3719,
      "anim": 3720,
      "äºŀ": 3721,
      "mainten": 3722,
      "ĠØ¢": 3723,
      "ĠØ¹Ùħ": 3724,
      "êµ°": 3725,
      "ç³»ç»Ł": 3726,
      "keĠ": 3727,
      "land": 3728,
      "ĠëĨ": 3729,
      "èĪ¹": 3730,
      "ainĠ": 3731,
      "jus": 3732,
      "tyĠ": 3733,
      ",Ġs": 3734,
      "Ð¿Ð¾Ð»": 3735,
      "ĠíĬ": 3736,
      "prop": 3737,
      "daĠ": 3738,
      "statoĠ": 3739,
      "éľĢ": 3740,
      "ãģĻãģ¹ãģ¦": 3741,
      "à¥įà¤¡": 3742,
      "ï¼ĮæĪĳä»¬": 3743,
      "Ġë°Ľ": 3744,
      "Ġà¤¦à¥ĩà¤ĸ": 3745,
      "Ð¼ÐµÑĢ": 3746,
      "ãģ§ãĤĤ": 3747,
      "Ð¾Ð»ÑĮÐºÐ¾": 3748,
      "odĠ": 3749,
      "eneĠ": 3750,
      "à¥Īà¤¨": 3751,
      "íĸĪëĭ¤.": 3752,
      "ĠØ³ÙĨ": 3753,
      "oloĠ": 3754,
      "Ġal": 3755,
      "Ġ13": 3756,
      "troĠ": 3757,
      "Ġà¤¹à¥Ī,": 3758,
      "ãģ¦ãģĦãĤĭ": 3759,
      "è³ĩ": 3760,
      "å·²ç»ı": 3761,
      "èĲ½": 3762,
      "à¥Ĥà¤¸à¥įà¤Ł": 3763,
      "hierĠistĠ": 3764,
      "æĤ¨": 3765,
      "pre": 3766,
      "åıĳå±ķ": 3767,
      "oltoĠ": 3768,
      "houston,Ġ": 3769,
      "otĠ": 3770,
      "ÑĤÐ¾ÑĢ": 3771,
      "195": 3772,
      "ierĠ": 3773,
      "åĪ¤": 3774,
      "à¥ĢĠà¤¤": 3775,
      "é¡¿": 3776,
      "eĠdÃ©": 3777,
      "etw": 3778,
      "butĠ": 3779,
      "ãĤ«ãĥĹãĤ»ãĥ«": 3780,
      "fac": 3781,
      "éģĶ": 3782,
      "ì£¼ìĿĺ": 3783,
      "éĺ³": 3784,
      "ĠëĦ": 3785,
      "ë¦Ħ": 3786,
      "abl": 3787,
      "ĠìĦ¤": 3788,
      "ityĠ": 3789,
      "imp": 3790,
      "ãĥĥãĥģ": 3791,
      "Ð¾ÑģÑĥÐ´Ð°": 3792,
      "ç½Ĺ": 3793,
      "èģŀãģĵãģĪ": 3794,
      "s.": 3795,
      "Ġà¤¸à¥įà¤µ": 3796,
      "Ġìļ´": 3797,
      "6å¹´": 3798,
      "íĭ": 3799,
      "inĠderĠ": 3800,
      "einerĠ": 3801,
      "ific": 3802,
      "d'accord.Ġ": 3803,
      "çĥ": 3804,
      "Ø©ĠÙĪ": 3805,
      "ĠØ§ÙĦØ°ÙĬ": 3806,
      "ìĬĲ": 3807,
      "umĠ": 3808,
      "eder": 3809,
      "ãĤ¸ãĤ§": 3810,
      "ëĲĺìĹĪ": 3811,
      "Ġìĭľìŀĳ": 3812,
      "ä»ĸä»¬": 3813,
      "assi": 3814,
      "ĠÐ¸Ð½": 3815,
      "ìĭŃ": 3816,
      "ĠÐºÐ°Ð¿": 3817,
      "à¤¾à¥¤": 3818,
      "æŃ¦": 3819,
      "oss": 3820,
      "Ã¼n": 3821,
      "ãĥĹãĥ¬": 3822,
      "ê³¼Ġê°Ļ": 3823,
      "ĠØ§ÙĦØ¹Ø±Ø¨": 3824,
      "çħ": 3825,
      "Ã©esĠ": 3826,
      "à¥ĭà¤¡à¤¼": 3827,
      "ÑģÐºÐ¸Ðµ": 3828,
      "ÙĤØª": 3829,
      "laĠs": 3830,
      "à¥ĢĠà¤ħ": 3831,
      "Ã¼c": 3832,
      "ìĽĶĠ2": 3833,
      "Ġì¦": 3834,
      "à¤¾à¤«": 3835,
      "à¤®à¥ĩà¤Ĥ": 3836,
      "æĻĤéĸĵ": 3837,
      "ëŀĮ": 3838,
      "è¿ĻéĩĮæĺ¯": 3839,
      "éģ¸": 3840,
      "ãģ¸": 3841,
      "à¤¾Ġà¤¥": 3842,
      "ettoĠ": 3843,
      "ĠÐ¾Ñģ": 3844,
      "igli": 3845,
      "å¿µ": 3846,
      "gesch": 3847,
      "Ø¨Ø¯ÙĪ": 3848,
      "stell": 3849,
      "ìĦĿ": 3850,
      "ĠÐ´ÑĢÑĥ": 3851,
      "å¤§çº¦": 3852,
      "ãģıãģł": 3853,
      "ez-": 3854,
      "ãĤĪãģĨãģ«": 3855,
      "ÂłÐ³Ð¾Ð´Ð°": 3856,
      "zi": 3857,
      "ĠetĠ": 3858,
      "ÐµÑĤÐµ": 3859,
      "à¥Ģà¤Ł": 3860,
      "Ð»Ð¾Ð²": 3861,
      "Ð¾ÑģÑĥÐ´Ð°ÑĢ": 3862,
      "bes": 3863,
      "èİ": 3864,
      "Ġê³¼": 3865,
      "à¥įà¤¸à¥Ĥà¤²": 3866,
      "çĪ¾": 3867,
      "flu": 3868,
      "Ð¾ÑĢÐ¸": 3869,
      "ÙĬØ«": 3870,
      "ĠÐ²ÐµÑĢ": 3871,
      "ê²°": 3872,
      "ç¤¾æľĥ": 3873,
      "éŁ¿": 3874,
      "Ð¾Ð½ÑıÐ»": 3875,
      "sedĠ": 3876,
      "à¤¾à¤¨à¥Ģ": 3877,
      "ä»£è¡¨": 3878,
      "æ´ĭ": 3879,
      "åİĨåı²": 3880,
      "sti": 3881,
      "çĻ¾": 3882,
      "auch": 3883,
      "æĸŃ": 3884,
      "Ġà¤¨à¥ĩĠà¤": 3885,
      "à¥įà¤µà¤¾à¤°": 3886,
      "è¿Ľè¡Į": 3887,
      "heĠ": 3888,
      "leĠc": 3889,
      "Ø§Ø®": 3890,
      "ÑģÑĤÐ°Ð²": 3891,
      "çŁ": 3892,
      "éº": 3893,
      "éĢļä¿¡": 3894,
      "äºĨè§£ãģĹãģ¾ãģĹãģŁãĢģ": 3895,
      "äºī": 3896,
      "ichĠw": 3897,
      "è¯´": 3898,
      "æ±Ĥ": 3899,
      "komm": 3900,
      "not": 3901,
      "arbe": 3902,
      "qual": 3903,
      "ĠÙĩÙĬ": 3904,
      "è¯·": 3905,
      "ox": 3906,
      "trans": 3907,
      "à¤¨à¥įà¤¦": 3908,
      "gut": 3909,
      "envir": 3910,
      "Ø©ØĮ": 3911,
      "riv": 3912,
      "Ġà¤¹à¥Īà¤Ĥà¥¤Ġà¤": 3913,
      "hisĠ": 3914,
      "į¼": 3915,
      "Ġà¤ķà¥ĩ": 3916,
      "à¤ªà¥įà¤°": 3917,
      "Ġë¶Ī": 3918,
      "ÙĬÙĥ": 3919,
      "ĠÑģÐ¾Ð±": 3920,
      "íĻĺ": 3921,
      "ãģ§ãģ¯ãĢģ": 3922,
      "lusĠ": 3923,
      "ãĥĴãĥ¥ãĥ¼": 3924,
      "´Ŀ": 3925,
      "Ġë¡": 3926,
      "eseĠ": 3927,
      "ĠìĺĪ": 3928,
      "Ø¨ÙĨ": 3929,
      "à¥ĭà¤°": 3930,
      "å±Ģ": 3931,
      "ÑģÑĤÐ²Ð¾": 3932,
      "Ġëĭ¤ìĿĮ": 3933,
      "Ńà¤¾à¤°à¤¤": 3934,
      "åįĢ": 3935,
      "ìĬµëĭĪ": 3936,
      "éĹ®": 3937,
      "çĩĥæĸĻ": 3938,
      "íĨł": 3939,
      "ÙħØ³": 3940,
      "ÐºÐ¾Ð½": 3941,
      "íķĺê³łĠìŀĪ": 3942,
      "ì¢ħ": 3943,
      "nation": 3944,
      "pourĠ": 3945,
      "Ġà¤®à¤¿à¤¨": 3946,
      "ĠÐµÑģÑĤÑĮ": 3947,
      "vaĠbene.Ġ": 3948,
      "ãĥķãĤ¡": 3949,
      "åıĭ": 3950,
      "åĨľ": 3951,
      "ĠíĺĦ": 3952,
      "íı¬": 3953,
      "ÙĪØª": 3954,
      "Ã©sĠ": 3955,
      "ì¤Ģ": 3956,
      "à¤¨à¥ĩĠà¤ķ": 3957,
      "åħ·": 3958,
      "Ð¼Ð¾": 3959,
      "probl": 3960,
      "èħ": 3961,
      "ĠØ§ÙĦÙĩ": 3962,
      "ï¼Įæĺ¯": 3963,
      "Ð»ÑģÑı": 3964,
      "itoĠ": 3965,
      "ĠÐ±Ðµ": 3966,
      "ĠØ´ÙĬØ¡": 3967,
      "ä¸Ķ": 3968,
      "j'aiĠ": 3969,
      "å®¹": 3970,
      "ãģªãģı": 3971,
      "éĻĲ": 3972,
      "Ø£ÙĨ": 3973,
      "åĲİï¼Į": 3974,
      "ouldĠ": 3975,
      "by": 3976,
      "err": 3977,
      "åĲ¦": 3978,
      "ĠØ£Ùĥ": 3979,
      "ìłĢ": 3980,
      "ãĤ¹ãĤ¿": 3981,
      "ìļ¸": 3982,
      "è¦ı": 3983,
      "Ġìµľ": 3984,
      "ï¼Įå¹¶": 3985,
      "Ġà¤¸à¤¬": 3986,
      "ĠìĹĲ": 3987,
      "æł¹": 3988,
      "ë¹Ħíĸī": 3989,
      "äºļ": 3990,
      "ä¸Ńèı¯": 3991,
      "Ð½Ð¾ÑģÑĤÐ¸": 3992,
      "deut": 3993,
      "à¤Ĥà¤¤à¤°à¤¿à¤ķà¥įà¤·Ġà¤¯": 3994,
      "Ġ...Ġ": 3995,
      "Ø±ÙĤ": 3996,
      "re.Ġ": 3997,
      "etteĠ": 3998,
      "elloĠ": 3999,
      "ÑģÑĤÐ²Ð¸": 4000,
      "äºĨè§£ãĢĤ": 4001,
      "ensĠ": 4002,
      "ĠíļĮ": 4003,
      "æŃ»": 4004,
      "æĹ¥ï¼Į": 4005,
      "æ¼«": 4006,
      "Ð¾ÐºÐ°": 4007,
      "thisĠisĠ": 4008,
      "æ®µ": 4009,
      "ì¶ľ": 4010,
      ",Ġj": 4011,
      "ĠÐ³Ð¾Ð´Ð°": 4012,
      "Ġà¤Ńà¤¾à¤°à¤¤": 4013,
      "ãĥĩãĤ£": 4014,
      "Ġì¶ľ": 4015,
      "Ġíĸī": 4016,
      "ë¦°": 4017,
      "ĠØ¹Ø¯": 4018,
      "å¼·": 4019,
      "Ø§Ø±ÙĬ": 4020,
      "é¤¨": 4021,
      "Ø§Ùĥ": 4022,
      "onc": 4023,
      "ĠØ§ÙĦÙĪÙĤ": 4024,
      "à¤Ĥà¤¬": 4025,
      "ical": 4026,
      "ä¸ĢäºĽ": 4027,
      "ãĥªãĤ«": 4028,
      "æł¸": 4029,
      "ĠëĳĲ": 4030,
      "best": 4031,
      "ĠØ¬Ùħ": 4032,
      "Ø«ÙĦ": 4033,
      "ĠÙĤØ¯": 4034,
      "bere": 4035,
      "ãĥ¨": 4036,
      "åĲ«": 4037,
      "acqu": 4038,
      "laĠcapsu": 4039,
      ".ĠÙĨ": 4040,
      "æľį": 4041,
      "Ġà¤°à¤¾à¤ľ": 4042,
      "Ġà¤¬à¤¹à¥ģà¤¤": 4043,
      "å®ĹæķĻ": 4044,
      "ircaĠ": 4045,
      "Ġà¤®à¤¿à¤¨à¤Ł": 4046,
      "lâĢĻ": 4047,
      "çļĦãģ«": 4048,
      "å¤§åŃ¦": 4049,
      "à¤°à¥įà¤·": 4050,
      "ock": 4051,
      "ãģĹãģĦ": 4052,
      "ÑĢÐ°Ð²Ð¸": 4053,
      "ë¦¬ê³ł": 4054,
      "éĽ¢": 4055,
      "äºĨè§£ãĢģ": 4056,
      "äººæ°ĳåħ±åĴĮåĽ½": 4057,
      "æİ§åĪ¶": 4058,
      "wenn": 4059,
      "à¤¸à¥įà¤¥": 4060,
      "æĬ¥": 4061,
      "Ġë©": 4062,
      "è¿°": 4063,
      "ingĠtheĠ": 4064,
      "æĬĬ": 4065,
      "ãģĻãĤĭãģĵãģ¨": 4066,
      "Ġà¤¸à¥įà¤¥à¤¿à¤¤": 4067,
      "à¤¿à¤¹": 4068,
      "æľ¯": 4069,
      "ë¥ĺ": 4070,
      "åºĶ": 4071,
      "Ġì§Ģê¸Ī": 4072,
      "ç»ıæµİ": 4073,
      ".8": 4074,
      "Ġì»": 4075,
      "ëĭĪëĭ¤.Ġ": 4076,
      "Ã²Ġ": 4077,
      "ì¼": 4078,
      "Ġà¤¸à¥ĩ": 4079,
      "endoĠ": 4080,
      "iveĠ": 4081,
      "ĠÐ±ÑĭÐ»Ð¾": 4082,
      "é£Ł": 4083,
      "é¢Ĩ": 4084,
      "åł´åĲĪ": 4085,
      "ëĦ¤": 4086,
      "ãģ«ãģ¤ãģĦãģ¦": 4087,
      "8-": 4088,
      "apr": 4089,
      "ìĬ¤íĦ´": 4090,
      "ä¸ĸç´Ģ": 4091,
      "à¥įà¤ļ": 4092,
      "Ø©ĠØ§ÙĦÙħ": 4093,
      "íķĺë©´": 4094,
      "æĹł": 4095,
      "å°İ": 4096,
      "forĠ": 4097,
      "ricevuto,Ġ": 4098,
      "etwaĠ": 4099,
      "bn": 4100,
      "åı¸": 4101,
      "europ": 4102,
      "à¤¤à¤¾Ġà¤¹à¥ĪĠà¤ķà¤¿": 4103,
      "otherĠ": 4104,
      "ĠÐ¼ÐµÐ½Ñı": 4105,
      "ĠÑĩÐµ": 4106,
      "ìĿ´ĠìŀĪ": 4107,
      "ĠØ¨Ø´ÙĥÙĦ": 4108,
      "ä¾Ľ": 4109,
      "bon": 4110,
      "å¾ĭ": 4111,
      "ĠÐ³Ð¾ÑģÑĥÐ´Ð°ÑĢ": 4112,
      "ÑĤÐ¸Ð²": 4113,
      "´ĳ": 4114,
      "char": 4115,
      "ìĹĲĠëĮĢ": 4116,
      "åĪĨéĴŁ": 4117,
      "ĠØŃÙĪØ§ÙĦÙĬ": 4118,
      "ft": 4119,
      "tor": 4120,
      "abin": 4121,
      "1å¹´": 4122,
      "èĮ": 4123,
      "ilot": 4124,
      "à¥ĢĠà¤ľ": 4125,
      "ãĤ¤ãĥ«": 4126,
      "opt": 4127,
      "à¤¾Ġà¤¹à¥Ī,Ġà¤": 4128,
      "Ġìº¡ìĬĲ": 4129,
      "åıĺ": 4130,
      "ilĠt": 4131,
      "ìĹĲìĦľëĬĶ": 4132,
      "Ġà¥§à¥": 4133,
      "a-": 4134,
      "tou": 4135,
      "à¥Ģà¤²": 4136,
      "à¤¹à¤¾à¤ģ": 4137,
      "åĬ©": 4138,
      "ici": 4139,
      "Ġ16": 4140,
      "ä¿Ĥ": 4141,
      "ãĥĹãĥŃ": 4142,
      "åĭ¢": 4143,
      "çĭ¬": 4144,
      "ØŃÙĬØ©": 4145,
      "åħ¶ä»ĸ": 4146,
      "ï¼Įä¸¦": 4147,
      "ãĥ¼ãĤ¹": 4148,
      "ìĦ¸ìļĶ": 4149,
      "'tĠ": 4150,
      "32": 4151,
      "ÑĢÐ°Ð·": 4152,
      "imĠ": 4153,
      "Ġë§İ": 4154,
      "azioneĠ": 4155,
      "Ġëª¨ëĵł": 4156,
      "æ¶Ī": 4157,
      "Ø³Ø·": 4158,
      "ÑĦÐ¸": 4159,
      ".6": 4160,
      "mu": 4161,
      "Ġ...": 4162,
      "Ð»Ð¾Ñģ": 4163,
      "åľº": 4164,
      "ãĥ³ãģ®": 4165,
      "à¥¤Ġà¤®à¥Īà¤Ĥ": 4166,
      "ëĭĪëĭ¤.": 4167,
      "ĠìĿ¼ë³¸": 4168,
      "à¤¸à¥įà¤ķ": 4169,
      "éĹľ": 4170,
      "enceĠ": 4171,
      "questoĠ": 4172,
      "ãģıãģłãģķ": 4173,
      "à¤ķà¥įà¤¤": 4174,
      "æĻĤä»£": 4175,
      "zeit": 4176,
      "ãĥĴãĥ¥ãĥ¼ãĤ¹ãĥĪ": 4177,
      "íĴ": 4178,
      "Ġì½": 4179,
      "Ġà¤¸à¥ģà¤¨": 4180,
      "å¯¦": 4181,
      "ĠëĤ¨": 4182,
      "ÑĨÐ¸Ñı": 4183,
      "íĶĮ": 4184,
      "ilĠc": 4185,
      "à¤¾Ġà¤¦": 4186,
      "à¥įà¤¯à¥Ĥà¤¸à¥įà¤Ł": 4187,
      "Ġà¤ħà¤¬": 4188,
      "æ±º": 4189,
      "ĠÑģÐ¾Ð²ÐµÑĤ": 4190,
      "Ġà¤®à¤¾à¤¨": 4191,
      "ìĭ¬": 4192,
      "è¦ĸ": 4193,
      "ni": 4194,
      "à¤¹à¤°": 4195,
      "ç»Ļ": 4196,
      "è¦ĭãģĪ": 4197,
      "à¥ĩà¤ľ": 4198,
      "ãĥªãĤ³": 4199,
      "æĸ¹æ³ķ": 4200,
      "æīĢæľī": 4201,
      "à¥įà¤¯à¥Ĥà¤¸à¥įà¤Łà¤¨": 4202,
      "zur": 4203,
      "stu": 4204,
      "à¥Īà¤°": 4205,
      "ãģĹãģĭ": 4206,
      "à¤¾à¤°à¤£": 4207,
      "27": 4208,
      "Ġà¤łà¥Ģà¤ķ": 4209,
      "atter": 4210,
      "ãĥķãĥ©ãĥ³": 4211,
      "ÑĤÐ¸ÑĩÐµ": 4212,
      "éĸĭå§ĭ": 4213,
      "éĩįè¦ģ": 4214,
      "ľ´ìĬ¤íĦ´": 4215,
      "3å¹´": 4216,
      "èĪ¬": 4217,
      "çµĮ": 4218,
      "äººï¼Į": 4219,
      "ingĠtoĠ": 4220,
      "²à¥ĩà¤ķ": 4221,
      "éĦ": 4222,
      "inĠm": 4223,
      "åıĤ": 4224,
      "Ġíİ": 4225,
      "tri": 4226,
      "éħį": 4227,
      "erk": 4228,
      "sĠandĠ": 4229,
      "ÙĩÙĨØ§": 4230,
      "Ø¬Ø±": 4231,
      "ĠÐ¼Ð¾Ð¶": 4232,
      "à¤Ĥà¤¤à¥įà¤°": 4233,
      "ì´Ī": 4234,
      "ÙĩØ±": 4235,
      "aberĠ": 4236,
      "Ø³ØªÙĨ": 4237,
      "ĠÐ²ÑĢÐµÐ¼Ñı": 4238,
      "cor": 4239,
      "æľª": 4240,
      "ãĥ³ãĥ»": 4241,
      "çĶ°": 4242,
      "astĠ": 4243,
      "è®°": 4244,
      "blic": 4245,
      "ĠìľĦíķ´": 4246,
      "íĮĲ": 4247,
      "æ¼«çĶ»": 4248,
      ".ĠtheĠ": 4249,
      "thr": 4250,
      "å¾ħ": 4251,
      "ãĥ¼ãĥ»": 4252,
      "radi": 4253,
      "ÙĪÙĬ": 4254,
      "ä»į": 4255,
      "ĠØ¨ÙĬ": 4256,
      "ãģ«ãĤĪãĤĭ": 4257,
      "ÑĩÐµÐ½ÑĮ": 4258,
      "ØŃØ¨": 4259,
      "ØĮĠÙħ": 4260,
      "ĠÐ¿Ð¾Ð»Ñĥ": 4261,
      "ĠÙĩÙĨØ§Ùĥ": 4262,
      "ä¸Ńåįİäººæ°ĳåħ±åĴĮåĽ½": 4263,
      "ĠÐ²Ð¾Ð·": 4264,
      "íĸ¥": 4265,
      "ĠÐ±ÑĭÐ»": 4266,
      "5å¹´": 4267,
      "ueĠ": 4268,
      "Ø§ÙĦØ¨": 4269,
      "ong": 4270,
      "åĲī": 4271,
      "Ġà¤ªà¤¹à¤²": 4272,
      "ĠØ¨Ø¹Ø¶": 4273,
      "ĠÐ´Ñĥ": 4274,
      "ç§Ĵ": 4275,
      "éĮ²": 4276,
      "eff": 4277,
      "à¥įà¤¬": 4278,
      "à¥¤Ġà¤¯à¤¹": 4279,
      "temper": 4280,
      "atiĠ": 4281,
      "Ø¬ÙĦ": 4282,
      "ĠÐ°ÑĢ": 4283,
      "ÙĬÙĪØ³ØªÙĨ": 4284,
      "à¥ģà¤¸": 4285,
      "à¥ĢĠà¤¨": 4286,
      "ãģķãĤĮãĤĭ": 4287,
      "s-": 4288,
      "Ġìĸ´ë": 4289,
      "çĹ": 4290,
      "aĠf": 4291,
      "et,Ġ": 4292,
      "à¤°à¥įà¤£": 4293,
      "ëĿ¼ëĬĶ": 4294,
      "çĲĨè«ĸ": 4295,
      "íĨµëł¹": 4296,
      "Ð¼Ð¿Ðµ": 4297,
      "lec": 4298,
      "Ġà¤ħà¤¨": 4299,
      "friendshipĠseven.Ġ": 4300,
      "Ġê¹Ģ": 4301,
      "Ð»Ð¾ÑģÑĮ": 4302,
      "val": 4303,
      "æĩ": 4304,
      "ÑĨÐµ": 4305,
      "Ġë³Ģ": 4306,
      "can": 4307,
      "enĠk": 4308,
      "iment": 4309,
      "nousĠavonsĠ": 4310,
      "hy": 4311,
      "mentĠ": 4312,
      "ª½": 4313,
      "âĢŀ": 4314,
      "çľĭåĪ°": 4315,
      "ãģ¾ãģĽãĤĵãĢĤ": 4316,
      "ä¼ĳæĸ¯": 4317,
      "ĠÐ²ĠÐ¿": 4318,
      "ãģ¦ãĢģ": 4319,
      "prov": 4320,
      "Ð¾Ð»Ð¸": 4321,
      "à¤µà¤Ĥ": 4322,
      "ë£¨": 4323,
      "29": 4324,
      ".ĠÑįÑĤÐ¾": 4325,
      "oci": 4326,
      "Ø¢": 4327,
      "omeĠ": 4328,
      "ureĠ": 4329,
      "à¥įà¤°à¥ĭ": 4330,
      "inĠordnung": 4331,
      "ä¼Ŀ": 4332,
      ".ĠÙĥ": 4333,
      "åħ§": 4334,
      "eĠdansĠ": 4335,
      "Ġëĵ¤ìĸ´": 4336,
      "dis": 4337,
      "mon": 4338,
      "à¥ĩà¤¦": 4339,
      "Ġde": 4340,
      "Ġìŀ¬": 4341,
      "aboutĠ": 4342,
      "ãĤĪãĤĬ": 4343,
      "æ´²": 4344,
      "Ø¸Ø§Ùħ": 4345,
      "æĶ¶åĪ°ï¼Į": 4346,
      "éĿŀå¸¸ãģ«": 4347,
      "ÑĮÑİÑģÑĤ": 4348,
      "ä¼ĳæĸ¯é¡¿": 4349,
      "ux": 4350,
      "à¤¾à¤§": 4351,
      "Ġê¸": 4352,
      "ÙĩØ°Ø§": 4353,
      "å¤ī": 4354,
      "ä¿®": 4355,
      "ãĥķãĥ¬": 4356,
      "dev": 4357,
      "ØªØµ": 4358,
      "esĠistĠ": 4359,
      "ë°Ķ": 4360,
      "ãģ¾ãģŁãĢģ": 4361,
      "éĿ©åĳ½": 4362,
      "ti": 4363,
      "ÙĬØ©ĠÙģÙĬ": 4364,
      "Ġà¤ľà¥ĭ": 4365,
      "çªģ": 4366,
      "¥íĦ°": 4367,
      "ë¹": 4368,
      "ØĮĠÙĩ": 4369,
      "ĠØ¨Ø¯": 4370,
      "Ð¹ÑĤÐµ": 4371,
      "ìĪł": 4372,
      "4å¹´": 4373,
      "Ð¸Ð·": 4374,
      "Ø³ÙĦ": 4375,
      "è¯Ń": 4376,
      "11,Ġ": 4377,
      "ĠÑĤÐ°Ðº": 4378,
      "å®£": 4379,
      "ĠÐ±Ð¾Ð»ÑĮ": 4380,
      "åĳ³": 4381,
      "Ð¿ÑĢÐ¸Ð½ÑıÑĤÐ¾.": 4382,
      "ordnungĠ": 4383,
      "ĠÐ¿Ð¾ÑģÐ»Ðµ": 4384,
      "ĠâĢĶ": 4385,
      "çīĩ": 4386,
      "åħ±çĶ¢": 4387,
      "íķĺìĺĢëĭ¤.Ġ": 4388,
      "ĠØ¬Ø¯ÙĭØ§": 4389,
      "ãĥ¤": 4390,
      "Ġdel": 4391,
      "quat": 4392,
      "ãĥĹãĤ¿ãĥ¼": 4393,
      "ÑĤÑĮÑģÑı": 4394,
      "Ø¥ÙĨ": 4395,
      "incol": 4396,
      "42": 4397,
      "num": 4398,
      "à¥ĢĠà¤¦": 4399,
      "åĬŁ": 4400,
      "ãĢįãĢĮ": 4401,
      "çºª": 4402,
      "egliĠ": 4403,
      "è¶Ĭ": 4404,
      "ëĦĪ": 4405,
      "Ġëį°": 4406,
      "ê°ķ": 4407,
      "ëĲĺìĸ´": 4408,
      "è¼ī": 4409,
      "ĢìĿ´": 4410,
      "anch": 4411,
      "isbn": 4412,
      "ÃłĠlaĠ": 4413,
      "ì½¥íĦ°": 4414,
      "å½±éŁ¿": 4415,
      "¬ë¦¬ì½¥íĦ°": 4416,
      "80": 4417,
      "Ġìĥ": 4418,
      "Ġì´Ī": 4419,
      "ÑĢÐ¾Ð´": 4420,
      "elic": 4421,
      "ä¸ĢèĪ¬": 4422,
      "Ġ25": 4423,
      "ãĤ¢ãĥ«": 4424,
      "à¥īà¤ª": 4425,
      "Ãªt": 4426,
      "continu": 4427,
      "1Ġ": 4428,
      "c'estĠ": 4429,
      "ÙĬØ©ĠÙĪØ§ÙĦ": 4430,
      "ĠìĿ´ìłľ": 4431,
      "ãģĹãģ¦ãģĦãĤĭ": 4432,
      "erm": 4433,
      "ĠÐ½Ð°ÑĩÐ°": 4434,
      "libertyĠ": 4435,
      "à¤¹à¤®": 4436,
      "æĻ¯": 4437,
      "ĠìĹ¬ê¸°ëĬĶ": 4438,
      "à¥įà¤ŀà¤¾à¤¨": 4439,
      "nom": 4440,
      "ĸà¥įà¤¯": 4441,
      "Ø¨ÙĬØ±": 4442,
      "ĠdÃ©": 4443,
      "åħŃ": 4444,
      "ĠØ§ÙĦÙħÙĨ": 4445,
      "ç»Ń": 4446,
      "æİĴ": 4447,
      "à¤¾à¤¤à¥įà¤°": 4448,
      "çŃīãĢĤ": 4449,
      "doĠ": 4450,
      "Ļæ±Ł": 4451,
      "iseĠ": 4452,
      "ØŃÙĬ": 4453,
      ",Ġà¤ħ": 4454,
      "çĽŁ": 4455,
      "air": 4456,
      "ros": 4457,
      "ĠØ£Ø®": 4458,
      "è§Ĵ": 4459,
      "Ġà¤¹à¥Īà¤Ĥà¥¤": 4460,
      "3,Ġ": 4461,
      "èĺ": 4462,
      "à¤¿à¤Ł": 4463,
      "éĿĴ": 4464,
      "çķ¶": 4465,
      "æĹ¶éĹ´": 4466,
      "æıı": 4467,
      "ãģ«ãģĬãģĦãģ¦": 4468,
      "andeĠ": 4469,
      "Ġà¤¹à¥ĪĠà¤ķà¤¿": 4470,
      "ĠmitĠ": 4471,
      "ĠØªØ´": 4472,
      "åĥı": 4473,
      "ãĥĺãĥªãĤ³": 4474,
      "ëĭ¬": 4475,
      "ough": 4476,
      "ĠÐ½ÐµÐ¼": 4477,
      "ĠÙĥÙĦ": 4478,
      "ê·¸ëŁ¬": 4479,
      "èĭı": 4480,
      "Ġdies": 4481,
      "Ġë¹": 4482,
      "Ð¼Ñĥ": 4483,
      "æŃ¢": 4484,
      "éĻĨ": 4485,
      "ãģĿãģĹãģ¦": 4486,
      "Ġà¤¸à¥ĩĠà¤¸": 4487,
      "âĢĵĠ": 4488,
      "are": 4489,
      "siamoĠ": 4490,
      "ÐµÐ¼ÑĮ": 4491,
      "ĠÐµÐ³Ð¾": 4492,
      "serv": 4493,
      "surĠ": 4494,
      "°à¤¾à¤ľ": 4495,
      "eĠdieĠ": 4496,
      "ìĦ¤": 4497,
      "ĠìŀĪëĭ¤.Ġ": 4498,
      "ä¹Ī": 4499,
      "okay,Ġ": 4500,
      "ì¡Į": 4501,
      "alsoĠ": 4502,
      "ĠìĿ´íĽĦ": 4503,
      "ç»ĵ": 4504,
      "Ġì§ĳ": 4505,
      "åĭĻ": 4506,
      "è®¤ä¸º": 4507,
      "ichĠh": 4508,
      "ÃłĠc": 4509,
      "çĶ£": 4510,
      "ãĥ¼ãĥĦ": 4511,
      "Ġìłģ": 4512,
      "ìĸ¸": 4513,
      "à¥įà¤ªà¤·à¥įà¤Ł": 4514,
      "vaĠbene,Ġ": 4515,
      "lau": 4516,
      "ÐµÐµ": 4517,
      "ìĹĲĠëĶ°": 4518,
      "íĸĪëĭ¤.Ġ": 4519,
      "çŃĸ": 4520,
      "ĠÐ±ÑĭÐ»Ð¸": 4521,
      "¡à¤¼": 4522,
      "Ġì¤Ģ": 4523,
      ",Ġà¤µ": 4524,
      "Ġà¤ķà¥ĭà¤Ī": 4525,
      "à¤§à¥įà¤¯": 4526,
      "éĢļè¿ĩ": 4527,
      "à¤¿à¤¶à¥įà¤µ": 4528,
      "å²¸": 4529,
      "your": 4530,
      "ĠÑĩÐ°": 4531,
      "tĠundĠ": 4532,
      "alb": 4533,
      "Ġìľ¤": 4534,
      "ãĥĺãĥªãĤ³ãĥĹãĤ¿ãĥ¼": 4535,
      "ĠinĠ": 4536,
      "Ø±Ø¶": 4537,
      "unt": 4538,
      "ãĤĮãģ°": 4539,
      "acad": 4540,
      "Ø¸Ø±": 4541,
      "ÑĳÐ½": 4542,
      "å»ºç«ĭ": 4543,
      "ç§ģãģŁãģ¡": 4544,
      "Ġà¤ķà¥Īà¤ªà¥įà¤¸à¥Ĥà¤²": 4545,
      "Ø¨Ø³": 4546,
      "êµŃìĿĺ": 4547,
      "anceĠ": 4548,
      "ãģªãģ©ãģ®": 4549,
      "aÃ": 4550,
      "Ġëĸ": 4551,
      "ÙĪØ¶": 4552,
      "à¤Ĥà¤Ł": 4553,
      "ãĢįãģ®": 4554,
      "zuĠ": 4555,
      "å§¿": 4556,
      "ãģ§ãģĤãĤĬãĢģ": 4557,
      "libertyĠbell": 4558,
      "ĠØ§": 4559,
      "à¥Ģà¤°": 4560,
      "ille": 4561,
      "à¥ĢĠà¤µ": 4562,
      "util": 4563,
      ",Ġà¤¬": 4564,
      "å¤ļãģı": 4565,
      "Ġà¤ķà¥įà¤¯à¤¾Ġà¤Ĩà¤ª": 4566,
      "noch": 4567,
      "ÑģÐ»Ð¸": 4568,
      "à¥ĢĠà¤Ĩ": 4569,
      "ĠÐ¼Ð¾": 4570,
      "ä»¥ä¸Ĭ": 4571,
      "ëŁī": 4572,
      "wirĠhab": 4573,
      "ä½łçļĦ": 4574,
      "éĵģ": 4575,
      "2,Ġ": 4576,
      "åħ¸": 4577,
      "prot": 4578,
      "ĠØªÙĤ": 4579,
      "æĶ»": 4580,
      "ç»Ħ": 4581,
      "Ġtech": 4582,
      "íķłĠìĪĺ": 4583,
      "æ§ĺ": 4584,
      ".ĠÑĥ": 4585,
      "íıī": 4586,
      "geminiĠvi": 4587,
      "å¨": 4588,
      "altr": 4589,
      "Ø¹ÙĬ": 4590,
      "ÑģÑĤÑĢÐ¾": 4591,
      "Ġìĥģíĥľ": 4592,
      "ression": 4593,
      "Ã¼ck": 4594,
      "ÙĦÙĤ": 4595,
      "alc": 4596,
      "à¥Īà¤¸": 4597,
      "åĪĬ": 4598,
      "à¤¾Ġà¤¨": 4599,
      "ven": 4600,
      "ÙĲ": 4601,
      "é¾": 4602,
      "à¤¾Ġà¤®à¥ĩà¤Ĥ": 4603,
      "inĠs": 4604,
      "Ø¹Ø§Ø¯": 4605,
      "é¢ĺ": 4606,
      "ĠíĬ¹": 4607,
      "à¤¨à¤ķ": 4608,
      "ï¼īï¼Į": 4609,
      "æĬķ": 4610,
      ",ĠÐ³": 4611,
      "sur": 4612,
      "Ø©ĠÙĦ": 4613,
      "Ġ197": 4614,
      "æ¸¸": 4615,
      "cent": 4616,
      "uhf": 4617,
      "Ġx": 4618,
      "Ð½Ð³": 4619,
      "ÑĪÑĥ": 4620,
      "Ð¶Ð´": 4621,
      "upp": 4622,
      "ãģ£ãģ¦ãģĦãĤĭãĢĤ": 4623,
      "how": 4624,
      "ÐµÐº": 4625,
      "ãģĦãĢģ": 4626,
      "Ð¾Ð²Ñĭ": 4627,
      "ãĥ¼ãĥĹ": 4628,
      "ä¸ĢåĪĩ": 4629,
      "ãĤ·ãĥ£": 4630,
      "Ġìĭľê°Ħ": 4631,
      "ÙĩØ¯": 4632,
      "ìĿ´ë©°": 4633,
      "íķĺì§ĢĠìķĬ": 4634,
      "æ¯ı": 4635,
      "ëĲĺìĹĪëĭ¤.": 4636,
      "æĹ¶æľŁ": 4637,
      "reÃ§u,Ġ": 4638,
      "Ġë¡ľ": 4639,
      "ÑĮÑİÑģÑĤÐ¾Ð½": 4640,
      "28": 4641,
      "bre": 4642,
      "vel": 4643,
      "íį¼": 4644,
      ".ĠÙĩÙĦ": 4645,
      "ÙĪØŃ": 4646,
      "ÑģÑĤÑĥ": 4647,
      "Ġà¤ķà¤¹": 4648,
      "ØªØŃØ¯": 4649,
      "ateur": 4650,
      "Ġê°ķ": 4651,
      "ç»§": 4652,
      "íķĻêµĲ": 4653,
      "Ġà¤Ĩà¤ªà¤ķà¥ĭ": 4654,
      "éĨ": 4655,
      "Ð²Ð¾": 4656,
      "Ð¾ÑĢÑı": 4657,
      "ì²ĺ": 4658,
      "Ġíı¬": 4659,
      "Ġíıī": 4660,
      "fÃ¼hr": 4661,
      "Ġà¤ķà¥įà¤·à¥ĩà¤¤à¥įà¤°": 4662,
      "gre": 4663,
      "Ð°Ð»ÑĮ": 4664,
      "å¯Ł": 4665,
      "ãģĿãĤĮãģ¯": 4666,
      "americ": 4667,
      "åı¦": 4668,
      "åıİ": 4669,
      "Ø§Ø´": 4670,
      "sign": 4671,
      "ĠÑĤÐ¾": 4672,
      "ä»¤": 4673,
      "à¤¤à¤¿": 4674,
      "opp": 4675,
      "ĠØ§ÙĦØ£Ùħ": 4676,
      "ç¨±": 4677,
      "Ð¾Ð±Ñĭ": 4678,
      "ÑĤÐµÐ»ÑĮÐ½Ð¾": 4679,
      "oriz": 4680,
      "ableĠ": 4681,
      "éļĬ": 4682,
      "å¦Ĥæŀľ": 4683,
      "tuttoĠ": 4684,
      "well": 4685,
      "esp": 4686,
      "is,Ġ": 4687,
      "ĠÙħØŃ": 4688,
      "ĠØ³ÙĬÙģÙĨ": 4689,
      "principal": 4690,
      "äºĳ": 4691,
      "åĬ¡": 4692,
      "èĩ´": 4693,
      "è¯ķ": 4694,
      "ĠíĨµíķ´": 4695,
      "fall": 4696,
      "ãģ¾ãģł": 4697,
      "Ġpart": 4698,
      "å¸Į": 4699,
      "eck": 4700,
      "èªŀãģ®": 4701,
      "æ¥ļ": 4702,
      "fahr": 4703,
      ",ĠÐºÐ¾ÑĤÐ¾ÑĢÑĭ": 4704,
      "enĠm": 4705,
      "å¸¦": 4706,
      "ãĤ¢ãĥ¡": 4707,
      "eĠnel": 4708,
      "ãĤ³ãĥ³ãĥ": 4709,
      "à¥ĩà¤²à¥Ģà¤ķ": 4710,
      "ÑģÑĤÐ¾Ñı": 4711,
      "ihn": 4712,
      "ØªÙī": 4713,
      "åĲĹ": 4714,
      "Ð¿Ð¾Ð½ÑıÐ»": 4715,
      "oseĠ": 4716,
      "åľ°çĲĥ": 4717,
      "allyĠ": 4718,
      "çµĤ": 4719,
      "ãģķãĤĮãĢģ": 4720,
      "Ġë¯¼": 4721,
      "ÑģÑģÑĢ": 4722,
      "ãģ¨ãĤĤ": 4723,
      "Ġà¤ªà¥Ĥ": 4724,
      "Ð¾Ð³Ð´Ð°": 4725,
      "é©¬": 4726,
      "ä¾ĭå¦Ĥ": 4727,
      "hau": 4728,
      "o-": 4729,
      "ãģ¯èī¯å¥½": 4730,
      "å¤į": 4731,
      "enteĠ": 4732,
      "ãĤ¹ãĥĨ": 4733,
      "åľ°æĸ¹": 4734,
      "ç»´": 4735,
      "ãģªãģĦãĢĤ": 4736,
      "Ġë²Ī": 4737,
      "Ø¯ÙĬÙĨØ©": 4738,
      "à¥ĩĠà¤®à¥ĩà¤Ĥ": 4739,
      "Ð»Ð¾Ð½": 4740,
      "ĠÑģÐ»Ñĭ": 4741,
      "vern": 4742,
      "roger,Ġ": 4743,
      "ì¡±": 4744,
      "arbeit": 4745,
      "à¥ĩà¤²à¥Ģà¤ķà¥īà¤ª": 4746,
      "à¥Ģà¤µ": 4747,
      "ãĥ¼ãĤ¸": 4748,
      "ĠìĿĮ": 4749,
      "ãģĵãģĵ": 4750,
      "eĠsch": 4751,
      "è¯Ŀ": 4752,
      "ãģķãĤĮãģŁãĢĤ": 4753,
      "ÑīÐ°": 4754,
      "æĵįä½ľ": 4755,
      "unit": 4756,
      "read": 4757,
      "åı³": 4758,
      "æĿĥ": 4759,
      "ç¾¤": 4760,
      "Ð½ÑĥÑĤ": 4761,
      "ãģĮãģĤãĤĭãĢĤ": 4762,
      "à¥ĩà¤²à¥Ģà¤ķà¥īà¤ªà¥įà¤Ł": 4763,
      "31": 4764,
      "that": 4765,
      "à¤ķà¤°": 4766,
      "è¨±": 4767,
      "ĠØ¥Ø°Ø§": 4768,
      "ĠÐ·ÐµÐ¼": 4769,
      "ãģ©ãģĨ": 4770,
      "Ø¹ÙħÙĦ": 4771,
      "Ġìŀħ": 4772,
      "ĠìĹ´": 4773,
      "æ³¨": 4774,
      ",Ġà¤¹": 4775,
      "2å¹´": 4776,
      "ts": 4777,
      "à¥ĩĠà¤ľ": 4778,
      "ìĬ¤íĬ¸": 4779,
      "ith": 4780,
      "åıĪ": 4781,
      "ĠÐ±Ð°": 4782,
      "à¥ĭà¤ĤĠà¤ķà¥ĭ": 4783,
      "Ġíĥľ": 4784,
      "fic": 4785,
      "aĠun": 4786,
      "oment": 4787,
      "æĹĹ": 4788,
      "Ġfr": 4789,
      "ãĤ¯ãĥ©": 4790,
      "æĪĲç«ĭ": 4791,
      "akeĠ": 4792,
      "Ġà¤°à¤¹à¥ĩĠà¤¹à¥Īà¤Ĥ": 4793,
      ",ĠÐºÐ°Ðº": 4794,
      "ere": 4795,
      "à¥ĩà¤¨": 4796,
      "ĠÑģÑģÑģÑĢ": 4797,
      "ĠìłĲ": 4798,
      "à¤¯à¥ĭà¤Ĺ": 4799,
      "Ġë°ı": 4800,
      "ï¼Įä»¥": 4801,
      "ãĥĪãĥ«": 4802,
      "edĠtoĠ": 4803,
      "ØºØ·": 4804,
      "notĠ": 4805,
      "íķŃ": 4806,
      "à¥ĭà¤Ł": 4807,
      "ä¹Ĳ": 4808,
      "ĠëĮĢíĨµëł¹": 4809,
      "éłĨ": 4810,
      "norm": 4811,
      "ħà¤¬": 4812,
      "ÙĪØ§Øª": 4813,
      "à¥Ģà¤¸": 4814,
      "ĠÐ·Ð½Ð°": 4815,
      "100Ġ[": 4816,
      "ichĠhabeĠ": 4817,
      "stri": 4818,
      "aryĠ": 4819,
      "Ġà¤¸à¥ĩĠà¤ķ": 4820,
      "ĠplusĠ": 4821,
      "å¾Ģ": 4822,
      "ëł¨": 4823,
      "Ġfu": 4824,
      "Ø¹ØªÙĤØ¯": 4825,
      "ez-vousĠ": 4826,
      "i.": 4827,
      "æ½": 4828,
      "æľ«": 4829,
      "Ġ14": 4830,
      "æĺĵ": 4831,
      "à¥Ĥà¤¨": 4832,
      "ä¸ĬãģĴ": 4833,
      "Ġà¤ħà¤ª": 4834,
      "Ġê°Ģì§Ģ": 4835,
      "ãĥĥãĤ¯ãĤ¹": 4836,
      "ohn": 4837,
      ".7": 4838,
      "ëĺĲ": 4839,
      "ìĥ": 4840,
      "endeĠ": 4841,
      ".Ġm": 4842,
      "ÙĪØ¹": 4843,
      "it'sĠ": 4844,
      "åħµ": 4845,
      "ĠÐ¿ÑĢÐ¾Ð²": 4846,
      "Ġíģ": 4847,
      "ĠØ§ÙĦØº": 4848,
      "ãģ¾ãģĹãģŁãĢĤ": 4849,
      "ÐµÐ½Ð¸Ð¸": 4850,
      "Ġà¤¸à¥ĩĠà¤ª": 4851,
      "ĠØ¯Ø±Ø¬": 4852,
      "ç¦»": 4853,
      "èĳĹä½ľæ¨©": 4854,
      "åħ±çĶ¢é»¨": 4855,
      "Ø±Ùģ": 4856,
      "æľĽ": 4857,
      "ĠØ£Ø³": 4858,
      "ander": 4859,
      "à¤°à¥įà¤¥": 4860,
      "é¦Ļ": 4861,
      "à¥Įà¤°": 4862,
      "Ġë§¤ìļ°": 4863,
      "geh": 4864,
      "t-": 4865,
      "iĠsonoĠ": 4866,
      "alg": 4867,
      "Ø¯Ø±": 4868,
      "iter": 4869,
      "ãģ«å¯¾": 4870,
      "å¤ı": 4871,
      "å·®": 4872,
      "ãĥķãĤ©": 4873,
      "Ġëĭ¹ìĭł": 4874,
      "à¤°à¤¹": 4875,
      "Ø©ĠÙħÙĨ": 4876,
      "Ġà¤¹à¤®à¤¾à¤°": 4877,
      "è£ħ": 4878,
      "zeitĠ": 4879,
      "å½¢æĪĲ": 4880,
      "²à¥ĩà¤ķà¤¿à¤¨": 4881,
      "Ġìĸ´ëĸ": 4882,
      ",ĠìķĦ": 4883,
      ".2": 4884,
      "ãĥ¦": 4885,
      "inform": 4886,
      "Ġà¤¸à¥ĩà¤µà¤¨": 4887,
      "Ġman": 4888,
      "compr": 4889,
      "è½¬": 4890,
      "itch": 4891,
      "ãģ«ãĤĤ": 4892,
      "ĠdansĠ": 4893,
      "ĠÙħØª": 4894,
      "ĠØ£Ùħ": 4895,
      "youĠ": 4896,
      "èŃĺ": 4897,
      "ystem": 4898,
      "lat": 4899,
      "ÙĦØª": 4900,
      "Ġà¤ķà¥ĩĠà¤ķ": 4901,
      "edĠtheĠ": 4902,
      "ä¸įåĲĮ": 4903,
      ",ĠÐ½Ð¾": 4904,
      "cc": 4905,
      "sich": 4906,
      "ÑĬ": 4907,
      "ãĤ¹ãĥ©": 4908,
      "æł·": 4909,
      "åĢ¼": 4910,
      "deiĠ": 4911,
      "Ġcontr": 4912,
      "produc": 4913,
      "æ¸©åº¦": 4914,
      "çħ§": 4915,
      "theĠd": 4916,
      "å¤«": 4917,
      "à¤®à¥Īà¤Ĥ": 4918,
      "à¥ģà¤·": 4919,
      "éª": 4920,
      "iniz": 4921,
      "ĠëĺĲ": 4922,
      "à¥ģà¤®": 4923,
      "Ġà¤ķà¥ĩĠà¤¦": 4924,
      "ë²Ī": 4925,
      "Ġíĺķ": 4926,
      "Ġê²½ìļ°": 4927,
      "mat": 4928,
      "uoĠ": 4929,
      "inst": 4930,
      "Ġmar": 4931,
      "éĢĨ": 4932,
      "Ø°ÙĦÙĥ": 4933,
      "à¤ľà¤¼": 4934,
      "ì²ľ": 4935,
      "Ġà¤Ľ": 4936,
      "inĠc": 4937,
      "ĠÐ³ÑĢÐ°": 4938,
      "ç³»çµ±": 4939,
      "æĺłçĶ»": 4940,
      "ê·¸ëŁ¬ëĤĺ": 4941,
      "à¤Ĩ": 4942,
      "enk": 4943,
      "ilit": 4944,
      "ìĹĲĠìĿĺ": 4945,
      "ä¸Ńï¼Į": 4946,
      "æī¹": 4947,
      "ãĤ¢ãĥ¡ãĥªãĤ«": 4948,
      "met": 4949,
      "zz": 4950,
      "¨¸": 4951,
      "Ø¨ØŃ": 4952,
      "ick": 4953,
      "à¤°à¥įà¤¤": 4954,
      "ëĵ¤ìĿĦ": 4955,
      "Ġà¤ķà¤°à¥ĩà¤Ĥ": 4956,
      "Ġìĸ¸": 4957,
      "Ð½ÑĥÑİ": 4958,
      "à¤¾à¤ªà¥įà¤¤": 4959,
      "piÃ¹": 4960,
      "ĠëķĮë¬¸": 4961,
      "Ī¬": 4962,
      "orsĠ": 4963,
      "ê²©": 4964,
      "sehr": 4965,
      "ãģ¦ãģĦãģ¾ãģĻãĢĤ": 4966,
      "otter": 4967,
      "åľĭå®¶": 4968,
      "ĠìĻĦ": 4969,
      "å½¼ãĤī": 4970,
      "æ¡Ī": 4971,
      "ì»": 4972,
      "Ø©.": 4973,
      "laĠf": 4974,
      "ĠÑģÐµÐ¹ÑĩÐ°Ñģ": 4975,
      "Ø¶Ø§Ø¡": 4976,
      "Ø¦ÙĬØ³": 4977,
      "amenteĠ": 4978,
      ".4": 4979,
      "2-": 4980,
      ",ĠtheĠ": 4981,
      "ÑĩÐ½Ð¾": 4982,
      "Ã¤h": 4983,
      "Ġ194": 4984,
      "menteĠ": 4985,
      "é£ŀè¡Į": 4986,
      "gest": 4987,
      "kap": 4988,
      "kÃ¶nn": 4989,
      "uiĠ": 4990,
      "à¤°à¥Ģ": 4991,
      "ÙĨØª": 4992,
      "ostĠ": 4993,
      "èĩªæ²»": 4994,
      "jeĠv": 4995,
      "¤à¥ĭ": 4996,
      "Ġa": 4997,
      "alex": 4998,
      "ãģ¨ãģ®": 4999,
      "ĠÙģÙĬĠÙħ": 5000,
      "åľ°åŁŁ": 5001,
      "ungĠderĠ": 5002,
      "Ġà¤īà¤¸": 5003,
      "ÑĢÐ¾Ð²Ð°": 5004,
      "ãĤĪãģĨãģª": 5005,
      ".3": 5006,
      "æĳ": 5007,
      "īà¤ª": 5008,
      ".Ġj": 5009,
      "stoĠ": 5010,
      "ä¾Ŀ": 5011,
      "à¤¿à¤¨à¥įà¤¦": 5012,
      "åĢĻ": 5013,
      "ehm": 5014,
      "é£İ": 5015,
      "tionĠ": 5016,
      "ãĥģãĥ£": 5017,
      "ç¸½": 5018,
      "gl": 5019,
      "vil": 5020,
      "en.": 5021,
      "ÑĥÑĢ": 5022,
      "ĠØ¨Ø±": 5023,
      "ë¦¬ëĬĶ": 5024,
      "oper": 5025,
      "çĽ´åįĩ": 5026,
      "Ġì°¨": 5027,
      "etr": 5028,
      "mod": 5029,
      ",ĠÑĥ": 5030,
      "staĠ": 5031,
      "ĠÑģÐ°": 5032,
      "æĹħ": 5033,
      "ĠÙĦØ¯ÙĬ": 5034,
      "è§Ĩ": 5035,
      "eĠperĠ": 5036,
      "ä½įç½®": 5037,
      "look": 5038,
      "univers": 5039,
      ",ĠÐ´": 5040,
      "çĮ": 5041,
      "íĿ": 5042,
      "ĠëĬ": 5043,
      "à¤¾Ġà¤µ": 5044,
      "æľĪï¼Į": 5045,
      "puisĠ": 5046,
      "ĠëĲľ": 5047,
      "çĽ´åįĩæľº": 5048,
      "ãĥ¼ãĥª": 5049,
      "Ġà¤ķà¥ĩĠà¤®": 5050,
      "ä¹¦": 5051,
      "Ġbu": 5052,
      "Ð¾Ð½Ð¸": 5053,
      "ãĥĹãĥ©": 5054,
      "Â».": 5055,
      "Ø¯ÙĬÙĨØ§": 5056,
      "produ": 5057,
      "ãĥ³ãĢĤ": 5058,
      "åºı": 5059,
      "Ġà¤¸à¥ĩĠà¤¬": 5060,
      "own": 5061,
      "Ġdem": 5062,
      "ãĥ¼ãĤ¯": 5063,
      "ìķ½": 5064,
      "schi": 5065,
      "å¯Ĩ": 5066,
      "æ¼¢": 5067,
      "ĠÐºÐ°Ð¿ÑģÑĥ": 5068,
      "wirĠhabenĠ": 5069,
      "à¤ķà¤¿": 5070,
      "isc": 5071,
      "ĠÑģÐµÐ¼ÑĮ": 5072,
      "ä¸ĬçļĦ": 5073,
      "çľĮ": 5074,
      "ìħĺ": 5075,
      "gel": 5076,
      "ê»": 5077,
      "ĠìĤ": 5078,
      "ãģ«ãģĦ": 5079,
      "Ġà¤®à¤¿à¤²": 5080,
      "Ð¿ÐµÑĢ": 5081,
      "diff": 5082,
      "Ø³ØªØ§ÙĨ": 5083,
      "è£½": 5084,
      "unic": 5085,
      "Ġà¤ķà¥ĩĠà¤°": 5086,
      "eĠsiĠ": 5087,
      "Ð¾Ð³Ð¸": 5088,
      "ìĨ¡": 5089,
      "tre": 5090,
      "Ĳà¤¸": 5091,
      "Ġà¤ķà¤®": 5092,
      "åĪ«": 5093,
      "åįĥ": 5094,
      "ë³Ħ": 5095,
      "zioneĠ": 5096,
      "Ð´ÐµÑģÑĮ": 5097,
      "å¥½çļĦï¼Į": 5098,
      "íĭ°": 5099,
      "libertyĠbellĠ7": 5100,
      "as,Ġ": 5101,
      "Ġì¡°ìĦł": 5102,
      "ëĭ¤ê³ł": 5103,
      "esĠetĠ": 5104,
      "ilĠn": 5105,
      "æĸ½": 5106,
      "ãģĤãĤĭãĢĤ": 5107,
      "ëł¬": 5108,
      "éĸĢ": 5109,
      "angu": 5110,
      "ç¬¬äºĮ": 5111,
      "ãĤ·ãĥ§ãĥ³": 5112,
      "1,Ġ": 5113,
      "ìª½": 5114,
      "ÙĬÙĤ": 5115,
      "es.": 5116,
      "å®¢": 5117,
      "åĲĽ": 5118,
      "ĠÐºÐ¾": 5119,
      "à¥ĩà¤Ĥà¤¡": 5120,
      "ĠëıĮ": 5121,
      "è´¨": 5122,
      "ĠíĶĦë¡ľ": 5123,
      ",ĠÐ²Ñĭ": 5124,
      "à¥Ģà¤®": 5125,
      "ĠíĿ": 5126,
      "ãĤĴæĮģ": 5127,
      "utoĠ": 5128,
      "éĻħ": 5129,
      "euxĠ": 5130,
      "ĠêµĲ": 5131,
      "ë¯¼ì£¼": 5132,
      "èģ¯": 5133,
      "íĶĦíĬ¸": 5134,
      "æ·±": 5135,
      "65": 5136,
      "å´": 5137,
      "eri": 5138,
      "à¥ĩà¤ª": 5139,
      "ØµØ±": 5140,
      "ãģŁãĤģãĢģ": 5141,
      "2Ġ": 5142,
      "ÙħØª": 5143,
      "steĠ": 5144,
      "versĠ": 5145,
      "Ø¬Ø¨": 5146,
      "Ð±Ðµ": 5147,
      "Ø§Ø¦ÙĬØ©": 5148,
      "Ø±ÙĬØ¨": 5149,
      "æĺİçĻ½": 5150,
      "ĠíķŃ": 5151,
      "ç·¨": 5152,
      "Ġà¤ĺ": 5153,
      "ĠíĶĮ": 5154,
      "Ġy": 5155,
      "ļà¤¾à¤¹": 5156,
      "ultur": 5157,
      "èµĦ": 5158,
      "ĠØ§ÙĦØ¹Ø§ÙĦÙħ": 5159,
      ",ĠdassĠ": 5160,
      "Ð¼Ð¿ÐµÑĢÐ°": 5161,
      "ĠØ¹ÙĦÙĬ": 5162,
      "à¥¤Ġà¤ĩà¤¸": 5163,
      "ĠØ³Ø£": 5164,
      "Ð»Ð°ÑģÑĮ": 5165,
      "Ġ50": 5166,
      "å¸ĤãĢģ": 5167,
      "ç¤¾ä¼ļåŃ¦": 5168,
      "èĬ±": 5169,
      "Ġë¬¸ìłľ": 5170,
      "çĨ": 5171,
      "ĠÑħÐ¾ÑĢÐ¾ÑĪÐ¾": 5172,
      "ÑĤÐ¾Ð±Ñĭ": 5173,
      "ini": 5174,
      "onĠs": 5175,
      "Ġë¦": 5176,
      "ãĥ¼ãĥ³": 5177,
      "ĠÐ¿ÐµÑĢ": 5178,
      "leĠs": 5179,
      "çķĻ": 5180,
      "ëª¨ëĵł": 5181,
      "à¤ĥ": 5182,
      "iĠeĠ": 5183,
      "ÙģÙĤ": 5184,
      "Ġà¤¸à¥įà¤ªà¤·à¥įà¤Ł": 5185,
      "åĽ¾": 5186,
      "ìĺĪ": 5187,
      "Ġì²´": 5188,
      "ØªØ´": 5189,
      "ë³µ": 5190,
      "ë¸Į": 5191,
      "åĶĲ": 5192,
      ",Ġà¤®à¥Īà¤Ĥ": 5193,
      "ual": 5194,
      "ä»°": 5195,
      "laĠl": 5196,
      "undes": 5197,
      "elicotter": 5198,
      "à¤¾à¤ļ": 5199,
      "essĠ": 5200,
      "ãģ¯ãĢĮ": 5201,
      "è§Ĥ": 5202,
      "ĠÑĥÐ¿ÑĢÐ°Ð²": 5203,
      "ÙĦÙĬÙħ": 5204,
      "ãĤ·ãĥ¥ãĥ¼ãĥĪ": 5205,
      ",Ġà¤ª": 5206,
      "ever": 5207,
      "geĠ": 5208,
      "à¥ĭà¤ķ": 5209,
      "æĺ¾": 5210,
      "ÑĢÐµÐ·": 5211,
      "Ð°Ð½Ð°": 5212,
      "à¤¦à¥ĩà¤¶": 5213,
      "Ġê°ģ": 5214,
      "çĻ»": 5215,
      "wirĠs": 5216,
      "è¿Ļä¸ª": 5217,
      "é»ĳ": 5218,
      "ä»ĬãĢģ": 5219,
      "å¥½çļĦãĢĤ": 5220,
      "åĩĨå¤ĩ": 5221,
      "éĹ®é¢ĺ": 5222,
      "34": 5223,
      "oy": 5224,
      "ãĤĢ": 5225,
      "Ð»Ð°Ð²": 5226,
      "å»£": 5227,
      "ÙĦØ§ÙĤ": 5228,
      "ãģĳãĤĭ": 5229,
      "Ġíķ©": 5230,
      "ãĥķãĥ©ãĥ³ãĤ¹": 5231,
      "rim": 5232,
      "Ġch": 5233,
      "second": 5234,
      "ãĤ¿ãĥ³": 5235,
      "à¤Ńà¥Ģ": 5236,
      "ĠìĤ¬ëŀĮ": 5237,
      "eth": 5238,
      "allesĠ": 5239,
      "ãĤĴåıĹ": 5240,
      "ìľ¼ëĤĺ": 5241,
      "eĠdeĠl'": 5242,
      "ì¦Ī": 5243,
      "sent": 5244,
      "Ġpr": 5245,
      "à¥ĩà¤®": 5246,
      "à¤¿à¤Ń": 5247,
      "ÙĩÙĬ": 5248,
      "ìĿ´íģ¬": 5249,
      "avor": 5250,
      "bec": 5251,
      "ÑĦÐ¾ÑĢ": 5252,
      "Ġìłķìĥģ": 5253,
      "new": 5254,
      ",ĠÐ¿Ð¾": 5255,
      "à¤¾Ġà¤ķà¤¿": 5256,
      "ink": 5257,
      "à¥ĩà¤¸": 5258,
      "à¥Ģà¤Ĥ": 5259,
      "ÙĤÙĪÙħ": 5260,
      "èµ·æĿ¥": 5261,
      "çģ«": 5262,
      "ê»ĺ": 5263,
      "Ġà¤®à¤¨": 5264,
      "åįĺ": 5265,
      "ãĥĳãĥª": 5266,
      "åģļ": 5267,
      "ç§ģãģ¯": 5268,
      "å®ĩèĪª": 5269,
      "âĢ¦âĢ¦": 5270,
      "eroĠ": 5271,
      "enĠd": 5272,
      "Ġdur": 5273,
      "Ġà¤¸à¤¾à¤®": 5274,
      "å®ģ": 5275,
      "Ġco": 5276,
      "Ð¿ÑĢÐµ": 5277,
      "ÑĤÐµÑĢ": 5278,
      "åŃ¦æł¡": 5279,
      "²à¤Ĺà¤Ńà¤Ĺ": 5280,
      "ĠíĻķìĿ¸": 5281,
      "temperatur": 5282,
      "Įëĵľ": 5283,
      "ÙĪÙĬØ©": 5284,
      "ãģ®ä¸Ģ": 5285,
      "ÙĬÙĨØ¯": 5286,
      "åĩł": 5287,
      "èģĶ": 5288,
      "²à¤Ĺà¤¤à¤¾Ġà¤¹à¥ĪĠà¤ķà¤¿": 5289,
      "ä»ĺ": 5290,
      "åĪĴ": 5291,
      "à¥ĢĠà¤Ń": 5292,
      "å·»": 5293,
      "schein": 5294,
      "æ¸¬": 5295,
      "ç¦ı": 5296,
      "d'accord,Ġ": 5297,
      "ĠØ¬ÙħÙĬØ¹": 5298,
      "ìĹĲĠëĮĢíķ´": 5299,
      "kon": 5300,
      "ma": 5301,
      "oi": 5302,
      "inoĠ": 5303,
      "orp": 5304,
      "ĠÐ¿ÑĢÐ°Ð²Ð¸": 5305,
      "icalĠ": 5306,
      "è®¡ç®Ĺ": 5307,
      "ãĥ´ãĤ£": 5308,
      "æĩī": 5309,
      "cel": 5310,
      "lag": 5311,
      "å·¦": 5312,
      "è¡ĮæĶ¿": 5313,
      "person": 5314,
      "æĽ¾": 5315,
      "Ġà¤¹à¥ĭà¤Ĺ": 5316,
      "ĠØ§ÙĦÙĪÙĤØª": 5317,
      "on,Ġ": 5318,
      "ï¼ĮåĽł": 5319,
      "Ð²ÐµÑĤ": 5320,
      "ãĥ¼ãĥŃ": 5321,
      "ÑĢÐ¸Ð¸": 5322,
      "Ø®Ø±": 5323,
      "Ġì§ģ": 5324,
      "è¾ĥ": 5325,
      "æŀĲ": 5326,
      "ilĠyĠ": 5327,
      "ilĠestĠ": 5328,
      "ãĤ°ãĥ©": 5329,
      "ahl": 5330,
      "ç¢ºèªį": 5331,
      "clu": 5332,
      "fe": 5333,
      "Łģ": 5334,
      "ÑĤÑģÑı": 5335,
      "Ø©ĠØ¨": 5336,
      "ĠìŀĪëĭ¤": 5337,
      "à¤Ĺà¤°": 5338,
      "sup": 5339,
      "Ø®Øµ": 5340,
      "Ġìĺ¨": 5341,
      "ä¹ĭä¸Ģ": 5342,
      "å±±ä¸ľ": 5343,
      "ï¼Įå®ĥ": 5344,
      "ĠÐºÑĢÐ°": 5345,
      "lev": 5346,
      "åºĥ": 5347,
      "èª¬": 5348,
      "Ã¤u": 5349,
      "è®©": 5350,
      "ĠØŃÙĬØ«": 5351,
      "ìĹ¬ê¸°": 5352,
      "ĠìĨį": 5353,
      "å®ĩå®Ļé£Ľè¡Į": 5354,
      "çĹħ": 5355,
      "55": 5356,
      "ĠaĠ": 5357,
      "à¥ĩà¤·": 5358,
      "ÙĪØ²": 5359,
      "Ġcent": 5360,
      "dies": 5361,
      "andĠtheĠ": 5362,
      "à¤°à¥įà¤Ł": 5363,
      "ĠÙĪØ§ÙĦÙħ": 5364,
      "çĵ": 5365,
      "ĠØ§ÙĨ": 5366,
      "cht": 5367,
      "çļĦãĢĤ": 5368,
      "åħ°": 5369,
      "åľ°å¹³": 5370,
      "Ġà¤ħà¤Ńà¥ĢĠà¤": 5371,
      "Ġà¤¦à¥įà¤µà¤¾à¤°": 5372,
      "Ø«ÙĬØ±": 5373,
      "åı·ãĢĤ": 5374,
      "Ġà¤²à¤Ĺà¤Ńà¤Ĺ": 5375,
      "fol": 5376,
      "Ã¢": 5377,
      "äºĴ": 5378,
      "åľ§": 5379,
      "osc": 5380,
      "likeĠ": 5381,
      "è¯¥": 5382,
      "Ġíķł": 5383,
      "åıĸãĤĬ": 5384,
      "ØŃØ³ÙĨÙĭØ§ØĮ": 5385,
      "sigmaĠ": 5386,
      ",ĠderĠ": 5387,
      "ars": 5388,
      "à¥ĩĠà¤¬": 5389,
      "ĠÙħØ³Øª": 5390,
      "ameĠ": 5391,
      "ĠÐ¾Ð´": 5392,
      "è®®": 5393,
      "ä¸ĸçºª": 5394,
      "çł´": 5395,
      "Ġëĭ¤ë¥¸": 5396,
      "propr": 5397,
      "organ": 5398,
      "ħà¤²": 5399,
      "ÑĢÐµÐ½": 5400,
      "Ġíģ¬": 5401,
      "à¤¾Ġà¤¬": 5402,
      "åįĶ": 5403,
      "Ġà¤ķà¥ĩĠà¤ħà¤¨": 5404,
      "ä¼¼": 5405,
      "à¤¦à¤¿": 5406,
      "igeĠ": 5407,
      "lass": 5408,
      ".ĠÙĬ": 5409,
      "à¤¿à¤Ĥà¤¦": 5410,
      "stoff": 5411,
      "schrau": 5412,
      "çĲĨåŃ¸": 5413,
      "Ã©tÃ©": 5414,
      "-ĠundĠ": 5415,
      "åŁºæľ¬": 5416,
      "eil": 5417,
      "tw": 5418,
      "tsĠ": 5419,
      "alis": 5420,
      "ĠÐ·Ð´ÐµÑģÑĮ": 5421,
      "ãĥŃãĤ·ãĤ¢": 5422,
      "à¥įà¤µà¥Ģ": 5423,
      "ãģĮãģĤãĤĬ": 5424,
      "çĻ¼å±ķ": 5425,
      "Ã©lic": 5426,
      "d.Ġ": 5427,
      "iqueĠ": 5428,
      "auxĠ": 5429,
      "è¿Ķ": 5430,
      "Ã¨reĠ": 5431,
      "æłĩ": 5432,
      "æľĢå¤§": 5433,
      "teil": 5434,
      "iel": 5435,
      "ãģ¹": 5436,
      "ÐºÐ¾Ð¼": 5437,
      "è¦³": 5438,
      "aysĠ": 5439,
      "eĠdeĠlaĠ": 5440,
      "ĠÑįÑĤ": 5441,
      "ĠÑħÐ¾": 5442,
      "ubschrau": 5443,
      "38": 5444,
      "oir": 5445,
      "zw": 5446,
      "thereĠ": 5447,
      "ĠÐ´Ð¾Ð»": 5448,
      "Ð³ÑĢÐ°": 5449,
      "ĠÐ³Ð¾ÑĢ": 5450,
      "ehtĠ": 5451,
      "ëĭ¹ìĭł": 5452,
      "Ġà¤¹à¥ģà¤Ĩ": 5453,
      "justĠ": 5454,
      "Ġë¦¬": 5455,
      "bri": 5456,
      "aĠcheĠ": 5457,
      "å¯¼": 5458,
      "Ġcomp": 5459,
      "åĨħèĴĻåı¤": 5460,
      "ĠÑĦÑĥ": 5461,
      "Ġì°¸": 5462,
      "íħĮ": 5463,
      "Ġëĭ¤ìĿĮê³¼Ġê°Ļ": 5464,
      "à¤¸à¥įà¤ķà¥ĥà¤¤": 5465,
      "herĠ": 5466,
      "±ħ": 5467,
      "Ø¯ÙĬØ¯": 5468,
      "ĠÑģÐº": 5469,
      "å¾ŀ": 5470,
      "wirdĠ": 5471,
      "Ð»ÐµÐº": 5472,
      ",ĠÑĩÑĤÐ¾Ð±Ñĭ": 5473,
      "à¤¨à¥ĩĠà¤ķà¥ĩĠà¤²à¤¿à¤ı": 5474,
      "lincol": 5475,
      "ale,Ġ": 5476,
      "åıĮ": 5477,
      "prÃ¼": 5478,
      "å°ĩ": 5479,
      "l'astronaut": 5480,
      "à¥Ĥà¤®": 5481,
      "Ġcomm": 5482,
      "geb": 5483,
      "ĠíĶ¼": 5484,
      "ĠÐ¿Ð°ÑĢÐ°": 5485,
      "ç²¾": 5486,
      "à¥ģà¤ķà¥įà¤¤": 5487,
      "ãĢģãĢĮ": 5488,
      "ÑĥÐ¶": 5489,
      "à¥įà¤°à¥ĩà¤Ĥà¤¡": 5490,
      "Ġpl": 5491,
      "åį°": 5492,
      "ĠØ£ÙĨÙĩ": 5493,
      "ission": 5494,
      "çģ£": 5495,
      "ÑģÑĤÐ°Ð½Ð¾Ð²": 5496,
      "Ġì¤Ģë¹Ħ": 5497,
      "Ã©licopt": 5498,
      "é§": 5499,
      "íľ´ìĬ¤íĦ´": 5500,
      "ä»Ģ": 5501,
      "ĠÙĪÙħ": 5502,
      "à¤ªà¤°": 5503,
      "ĠÙĥØ§ÙĨØª": 5504,
      "allĠ": 5505,
      "ĠÐµÑīÐµ": 5506,
      "åħ¬éĩĮ": 5507,
      "é¦¬": 5508,
      "sonĠ": 5509,
      "é½": 5510,
      "ary": 5511,
      "untĠ": 5512,
      "ãģ§ãģ®": 5513,
      "à¤¾Ġà¤ħ": 5514,
      "ëıħ": 5515,
      "parĠ": 5516,
      "aufĠ": 5517,
      "à¤¡à¤¼à¤¾à¤¨": 5518,
      "ä¸Ńåľĭåħ±çĶ¢é»¨": 5519,
      "ì½Ķ": 5520,
      "Ġà¤ķà¥īà¤®": 5521,
      "na": 5522,
      "ìŁģ": 5523,
      "ÙĪØ·": 5524,
      "ĠÙħØ±": 5525,
      "ÑħÑĮÑİÑģÑĤÐ¾Ð½": 5526,
      "opoĠ": 5527,
      "æĿĳ": 5528,
      "à¤¶à¤¿à¤ª": 5529,
      "æŀĦ": 5530,
      "æ¬Ĭ": 5531,
      "ĠdeĠl'": 5532,
      "ê³µíĻĶ": 5533,
      "ê²ĥìĿĢ": 5534,
      ".1": 5535,
      "iÃ¹": 5536,
      "tel": 5537,
      "zwe": 5538,
      "ordĠ": 5539,
      "queĠn": 5540,
      "Ã¤g": 5541,
      "çķ°": 5542,
      "Ġà¤ķà¥ĢĠà¤ľ": 5543,
      "fÃ¼rĠ": 5544,
      ",Ġà¤ķ": 5545,
      "64": 5546,
      "¶à¤¨": 5547,
      "äº¡": 5548,
      "Ð¿Ð¾": 5549,
      "ä¼ŀ": 5550,
      "le.Ġ": 5551,
      "èªŃ": 5552,
      "ãĤ»ãĥ³ãĥĪ": 5553,
      "eĠdellaĠ": 5554,
      "2000": 5555,
      "çļĦä¸Ģ": 5556,
      "Ġ100": 5557,
      "ĠØ§ÙĦÙħØŃ": 5558,
      "è¿Ļæĺ¯": 5559,
      "ĠÑĢÐ¾ÑģÑģÐ¸Ð¸": 5560,
      ",5": 5561,
      "35": 5562,
      "ym": 5563,
      "Ġì¡": 5564,
      "ÑģÐ¾Ð²": 5565,
      "ĠëĿ¼": 5566,
      "Ð°Ð½Ð´": 5567,
      "ç§¯": 5568,
      "å¼µ": 5569,
      "ëĤ¨": 5570,
      "Ø²Ø§ÙĦ": 5571,
      "ĠØ§ÙĦØªØŃÙĥÙħ": 5572,
      "éľĢè¦ģ": 5573,
      "å®ĩå®Ļé£Ľè¡Įå£«": 5574,
      "erg": 5575,
      "ÑĢÐ¾Ð¿": 5576,
      "à¥ĢĠà¤®à¥ĩà¤Ĥ": 5577,
      "à¤Ĥà¤ľ": 5578,
      "æľ¨": 5579,
      "agen": 5580,
      "æ²¿": 5581,
      "ë§Ŀ": 5582,
      "Ġà¤ħà¤Ĥà¤¤à¤°à¤¿à¤ķà¥įà¤·Ġà¤¯": 5583,
      "ä¸»ä¹ī": 5584,
      "æĪĲä¸º": 5585,
      "ëŀĢ": 5586,
      "ĠÐ¿ÑĢÐ¸Ð¼ÐµÑĢ": 5587,
      ",ĠÐ¼Ñĭ": 5588,
      "7,Ġ": 5589,
      "ancheĠ": 5590,
      "artĠ": 5591,
      "ÙĤØµ": 5592,
      "åĪĻ": 5593,
      "ãģĦãģŁ": 5594,
      "ĠÑģÑĥ": 5595,
      "sist": 5596,
      "è§ī": 5597,
      "èĩº": 5598,
      "çķª": 5599,
      "èµ¤": 5600,
      "ĠØ®ÙĦØ§ÙĦ": 5601,
      "à¥įà¤°à¥ĩà¤Ĥà¤¡à¤¶à¤¿à¤ª": 5602,
      "Ġì´Ŀ": 5603,
      "Ġë¸": 5604,
      "Ġà¤ķà¤¿à¤¯à¤¾": 5605,
      "æŃ¥": 5606,
      "lie": 5607,
      "Ġbi": 5608,
      "à¤ĸà¥įà¤¯": 5609,
      "Ð¼Ð°Ñİ": 5610,
      "é²": 5611,
      "ÙĦØ¨": 5612,
      "ĠÐ²Ñģ": 5613,
      "ĠÑģÐµÐ²": 5614,
      "ĠÐ¼Ð¾Ð³": 5615,
      "Ġà¤Ĺà¤¯": 5616,
      "overĠ": 5617,
      "å²Ľ": 5618,
      "ommesĠ": 5619,
      "ĠÐ¿ÑĢÐ¾Ð´": 5620,
      "æĶ¹éĿ©": 5621,
      "¦à¥ĩà¤ĸ": 5622,
      "Ġëģ": 5623,
      "ÙĪÙģ": 5624,
      "icĠ": 5625,
      "ĠsieĠ": 5626,
      "ãĤ¸ãĥ§": 5627,
      "ëŁ°": 5628,
      "ĠÐ²ÑĭÑģ": 5629,
      "ãģ£ãģ¦ãģĦãĤĭ": 5630,
      "åĪ©çĶ¨": 5631,
      "ix": 5632,
      "ÙĬØ©.": 5633,
      "agesĠ": 5634,
      "æĸĩåŃĹ": 5635,
      "Ð¼Ð¸ÑĩÐµ": 5636,
      "Ã©taitĠ": 5637,
      "jeĠvousĠ": 5638,
      "åŁİå¸Ĥ": 5639,
      "æ£Ģ": 5640,
      "ê·¼": 5641,
      "ĠØ£ÙĬØ¶": 5642,
      "à¥įà¤°à¥ĩà¤Ĥà¤¡à¤¶à¤¿à¤ªĠà¤¸à¥ĩà¤µà¤¨": 5643,
      "arc": 5644,
      "ĠØ§ÙĦÙħØ³": 5645,
      "ãģķãģĽ": 5646,
      "ĠØŃØªÙī": 5647,
      "æĸ¹éĿ¢": 5648,
      "èĳī": 5649,
      "à¤¾Ġà¤ľà¤¾à¤¤": 5650,
      "Ġíķ¨ê»ĺ": 5651,
      "Ġì¦Ŀ": 5652,
      "ĠØ£ÙĥØ«Ø±": 5653,
      "ë¹ĦíĸīìĤ¬": 5654,
      "getĠ": 5655,
      "pend": 5656,
      "raĠ": 5657,
      "zĠ": 5658,
      "zum": 5659,
      "entend": 5660,
      "autom": 5661,
      "Ġà¤¸à¤Ĥà¤Ĺ": 5662,
      "Ĩà¤ªà¤ķà¥ĭ": 5663,
      "æĢĿæĥ³": 5664,
      "å·´å°¼": 5665,
      "æºĸåĤĻ": 5666,
      "6,Ġ": 5667,
      "ãĥĽ": 5668,
      "à¤¿à¤£": 5669,
      "åħ´": 5670,
      "ĠÐ¾ÑĩÐµÐ½ÑĮ": 5671,
      "list": 5672,
      "é»Ħ": 5673,
      "bel": 5674,
      "ÑĤÐ¾Ð»": 5675,
      "alĠs": 5676,
      "unĠc": 5677,
      "ãģ«ãģ¯ãĢģ": 5678,
      "ãģªãģĭ": 5679,
      "sein": 5680,
      "è§Ģ": 5681,
      "Ġê°Ĳ": 5682,
      "ãĤ·ãĥĥãĥĹ": 5683,
      "ĠÐ°Ð²": 5684,
      "gotĠ": 5685,
      "theyĠ": 5686,
      "Ġà¤¸à¥įà¤¥à¤¿à¤¤à¤¿": 5687,
      ".9": 5688,
      "Ø±ÙĨ": 5689,
      "à¤¿à¤§": 5690,
      "åħ«": 5691,
      "Ġë°ķ": 5692,
      "Ġgo": 5693,
      "ĠëĤĻ": 5694,
      "ÙĪØ±Ø©": 5695,
      "è©¦": 5696,
      "å·¥ä½ľ": 5697,
      "à¤ļà¥įà¤ļ": 5698,
      "ii,Ġ": 5699,
      "à¥ĢĠà¤ķà¥ĭ": 5700,
      "ĠÐµÑģÐ»Ð¸": 5701,
      "eursĠ": 5702,
      "apolloĠ8,Ġ": 5703,
      "ÂłÐ³Ð¾Ð´Ñĥ": 5704,
      "éĨ«": 5705,
      "haiĠ": 5706,
      "µà¤¾à¤²": 5707,
      "ãģ¼": 5708,
      "ï¼Įåħ¶ä¸Ń": 5709,
      "Ð¼Ð¾ÑĤ": 5710,
      "å®ĭ": 5711,
      "à¤¾Ġà¤Ĺ": 5712,
      "Ġà¤µà¤¹": 5713,
      "æĸ¹è¨Ģ": 5714,
      "ãģĹãģ¦ãģĦãģ¾ãģĻãĢĤ": 5715,
      "åģı": 5716,
      "æģ¯": 5717,
      "auroraĠ": 5718,
      "37": 5719,
      "ĠØªÙĨ": 5720,
      "å¤§ãģį": 5721,
      "Ġìķł": 5722,
      "æīį": 5723,
      "íİ¸": 5724,
      "Ø¨Ø³ÙĪÙĦØ©": 5725,
      ".ĠÐ¿": 5726,
      "demĠ": 5727,
      "ĠíķĻ": 5728,
      "sta": 5729,
      "ìĿĦĠë³´": 5730,
      "einem": 5731,
      "åīµ": 5732,
      "å°ĳãģĹ": 5733,
      "Ø±ÙĥØ²": 5734,
      "68": 5735,
      "iĠp": 5736,
      "æµĻæ±Ł": 5737,
      "ëłĮëĵľ": 5738,
      "tech": 5739,
      "39": 5740,
      "¯à¥": 5741,
      "Ġà¤ªà¤¹": 5742,
      "traĠ": 5743,
      "ĠÐ´ÐµÐ¹": 5744,
      "éŃ": 5745,
      "ÙĬÙĪÙĨ": 5746,
      "ĠÐ²Ð¾Ð´": 5747,
      "ãģĮãģ§ãģį": 5748,
      "Ø´ÙĬØ¨": 5749,
      "Ġfil": 5750,
      "Ø®ÙĦ": 5751,
      "11.Ġ": 5752,
      "Ð·ÑĭÐ²Ð°": 5753,
      "ĠÐ¿ÑĢÐ¸Ð¼ÐµÑĢÐ½Ð¾": 5754,
      "hasĠ": 5755,
      "ãģĶ": 5756,
      "Ð»ÐµÐ¼": 5757,
      "éĢĲ": 5758,
      "ĠÐ´Ð²": 5759,
      "ä¼Ĭ": 5760,
      "opul": 5761,
      "è§Ħ": 5762,
      "us,Ġ": 5763,
      "Ġwh": 5764,
      "åİĭ": 5765,
      "ezz": 5766,
      "ah,Ġ": 5767,
      "åĤ³": 5768,
      "éĢŁåº¦": 5769,
      "ãģĤãģªãģŁãģ®": 5770,
      "]Ġ": 5771,
      "ëĭ¤ëĬĶ": 5772,
      "à¤¤à¤¿à¤¹": 5773,
      "à¥įà¤°à¤®": 5774,
      "íķĺë©°": 5775,
      "ution": 5776,
      "Ã¨Ġs": 5777,
      "ĠìĿ´ìĥģ": 5778,
      "Ø§Ø¦ÙĤ": 5779,
      "Ġê°ĻìĿĢ": 5780,
      "æ¸ħæ¥ļ": 5781,
      "à¤¸à¤®à¤ĿĠà¤Ĺà¤¯à¤¾à¥¤Ġà¤": 5782,
      "ÙĬÙĨØ¯Ø´ÙĬØ¨": 5783,
      "ëłĮëĵľìĭŃ": 5784,
      "let": 5785,
      "ëĥ": 5786,
      "æĺ¥": 5787,
      "à¤¾à¤°à¥įà¤¯": 5788,
      "ê°ĢĠìŀĪ": 5789,
      "ãĥ«ãĥ»": 5790,
      "spaz": 5791,
      "Ġëıħ": 5792,
      "ĠÐ±ÑĥÐ´ÐµÑĤ": 5793,
      ",ĠìĹ¬ê¸°ëĬĶ": 5794,
      ".ĠÐ½Ð°": 5795,
      "sindĠ": 5796,
      "ÙħÙĦ": 5797,
      "oĠaĠ": 5798,
      "che": 5799,
      "Ã©Ġp": 5800,
      "à¥ĭà¤¨": 5801,
      "Ð²Ð¾Ð´": 5802,
      "Ð²ÑĪÐ¸": 5803,
      "ĠÙħØ³": 5804,
      "Ġà¤ªà¤¾à¤¨à¥Ģ": 5805,
      "tran": 5806,
      "Ð·Ñĥ": 5807,
      "Ġà¤ķà¥ĩĠà¤µ": 5808,
      "conc": 5809,
      "ĠÙģÙĬĠØ§ÙĦ": 5810,
      "å±Ĥ": 5811,
      "è®Ĭ": 5812,
      "ØºÙĬÙĦ": 5813,
      "à¤¾à¤²à¤¯": 5814,
      "íķłĠìĪĺĠìŀĪ": 5815,
      "çĬ¶æħĭ": 5816,
      "à¥ĩà¤¡": 5817,
      "enĠh": 5818,
      "ìĿ´ëĤĺ": 5819,
      "ãģ¨ãĢģ": 5820,
      "sib": 5821,
      "ĠÐ´Ð°Ð½": 5822,
      "2010": 5823,
      "gener": 5824,
      "à¤¤à¤¿à¤¹à¤¾à¤¸": 5825,
      "ĠÑĢ": 5826,
      "äº¿": 5827,
      "ÙģØº": 5828,
      "import": 5829,
      "ĠÐ¸ÑģÐ¿": 5830,
      "Ġà¤ķà¥ĩĠà¤¨": 5831,
      "ÐµÑĤÐ°": 5832,
      "compl": 5833,
      "ĠfÃ¼r": 5834,
      "ãģķãĤĮãģ¦ãģĦãĤĭãĢĤ": 5835,
      "è¶³": 5836,
      "Ã¼berĠdieĠ": 5837,
      "ìł¸ĠìŀĪ": 5838,
      "maintenantĠ": 5839,
      "-d": 5840,
      "3-": 5841,
      "haĠ": 5842,
      "vari": 5843,
      "ÙĥÙĪÙħ": 5844,
      "Ð²Ð¾Ð»": 5845,
      "deĠl'": 5846,
      "Ð´Ð¸Ð½": 5847,
      "èŃ·": 5848,
      "Ġë²Ħ": 5849,
      "Ø±ÙĪØŃÙĬØ©": 5850,
      "Ġsecond": 5851,
      "åıĭè°": 5852,
      "ãĥķãĥ¬ãĥ³ãĥī": 5853,
      "ve": 5854,
      "ãģ¶": 5855,
      "itali": 5856,
      "ĠÐ²Ð»Ð°": 5857,
      "ichĠb": 5858,
      "Ġph": 5859,
      "suisĠ": 5860,
      "en,ĠdassĠ": 5861,
      "ë°±": 5862,
      "atoĠd": 5863,
      "rÃ©g": 5864,
      "iĠsentoĠ": 5865,
      "çĿ£": 5866,
      "chiar": 5867,
      "ï¼Įä¹Ł": 5868,
      "asse": 5869,
      "å°º": 5870,
      "Ġgen": 5871,
      "åħ¨çľģ": 5872,
      "gro": 5873,
      "ãĥģãĤ§": 5874,
      "ç§ĳåŃ¸": 5875,
      "à¥Ĥà¤ªĠà¤®à¥ĩà¤Ĥ": 5876,
      "íĺĦìŀ¬": 5877,
      "æĬĢè¡ĵ": 5878,
      "çı¾åľ¨ãĢģ": 5879,
      "to": 5880,
      "zeu": 5881,
      "zurĠ": 5882,
      "Ġ:Ġ": 5883,
      "ursĠ": 5884,
      "ä¸ŃçļĦ": 5885,
      "seh": 5886,
      "atĠtheĠ": 5887,
      "ë³Ģ": 5888,
      "åĵį": 5889,
      "ë²ł": 5890,
      "Ġà¤īà¤ª": 5891,
      "é¢¨": 5892,
      "æĴŃ": 5893,
      "Ġà¤¸à¤ķà¤¤à¥ĩĠà¤¹à¥Īà¤Ĥ": 5894,
      "à¤¨à¥įà¤¹à¥ĩà¤Ĥ": 5895,
      "åıĭè°Ĭ": 5896,
      ".ĠÐ²Ñĭ": 5897,
      "íģ": 5898,
      "ãĤ¼": 5899,
      "Ġëł": 5900,
      "ëĬĶëį°": 5901,
      "entreĠ": 5902,
      "imb": 5903,
      "åįķ": 5904,
      "Ã¨m": 5905,
      "ä¹Ŀ": 5906,
      "ÑģÐºÐ¾Ð¼": 5907,
      "ÙĬÙĨÙĬ": 5908,
      "ãĤĤãģĹ": 5909,
      "å¿«": 5910,
      "Ġà¤Ńà¥Ģ": 5911,
      "tuttiĠ": 5912,
      "ĠÑģÐ²Ñı": 5913,
      "åĲ¬åĪ°": 5914,
      "Ġì§Ħíĸī": 5915,
      "problem": 5916,
      ",Ġà¤®": 5917,
      "ved": 5918,
      "yp": 5919,
      "èŀ": 5920,
      "ĠìĪ": 5921,
      "ï¼ģ": 5922,
      "verb": 5923,
      "ĠÐ¸Ð»Ð¸": 5924,
      "ĠØªØ¹": 5925,
      "Ð¾Ð»Ð¾": 5926,
      "ä¾¿": 5927,
      "ì²Ń": 5928,
      "queĠvousĠ": 5929,
      "ĠÐ±ÑĭÐ»Ð°": 5930,
      "enĠsieĠm": 5931,
      "we'reĠ": 5932,
      "landĠ": 5933,
      "aĠeĠ": 5934,
      "arr": 5935,
      "Ġfor": 5936,
      "Ø®Ø¯Ùħ": 5937,
      "Ġwe": 5938,
      "ë¶ģ": 5939,
      "eĠminut": 5940,
      "çĲĨè§£": 5941,
      "æĶ¿çŃĸ": 5942,
      "æĹ¶ï¼Į": 5943,
      "ãĥĳãĥ¼": 5944,
      "çĽ®åīį": 5945,
      ",Ġà¤ľà¥ĭ": 5946,
      "ograp": 5947,
      "Ð¾ÑĢÑıÐ´": 5948,
      "æĨ": 5949,
      "è¤": 5950,
      "ØªÙĩ": 5951,
      "æ°ĳåľĭ": 5952,
      "ìķĮê²łìĬµëĭĪëĭ¤,Ġ": 5953,
      "âĢĿãĢĤ": 5954,
      "Ø§ÙĦØ¨Ø§ÙĨ": 5955,
      "ëłĮëĵľìĭŃĠìĦ¸ë¸Ĳ": 5956,
      "ÙĦØ·": 5957,
      "alk": 5958,
      "ask": 5959,
      "ĠÐ¾ÑĢ": 5960,
      "ä¸ĢåĢĭ": 5961,
      "Ã¤ch": 5962,
      "ĠnichtĠ": 5963,
      "çŃĶ": 5964,
      "afterĠ": 5965,
      ",Ġà¤¹à¤®": 5966,
      "wouldĠ": 5967,
      "æ¦Ĥ": 5968,
      "Ġab": 5969,
      "ħà¤§à¤¿à¤ķ": 5970,
      "orig": 5971,
      "ÑıÐ½": 5972,
      "appar": 5973,
      "beg": 5974,
      "ãĥ©ãĤ¯": 5975,
      "Ġwir": 5976,
      "à¤¾à¤¤à¥įà¤®": 5977,
      "à¤¤à¥įà¤¤à¤°": 5978,
      "aqu": 5979,
      "hav": 5980,
      "leĠd": 5981,
      "ê·¸ë¦¬ê³ł": 5982,
      "Ð¾ÑģÐ¼Ð¸ÑĩÐµ": 5983,
      "å¢ŀéķ¿": 5984,
      "firstĠ": 5985,
      "å¨ģ": 5986,
      "ian": 5987,
      "eĠtheĠ": 5988,
      "Ð¸Ñģ": 5989,
      "äºĪ": 5990,
      "à¥Īà¤ķ": 5991,
      "à¥Īà¤¯": 5992,
      "å¾®": 5993,
      "Ø·ÙĤØ©": 5994,
      "åī§": 5995,
      "ĠØ§ÙĦØ£Ø®": 5996,
      "ØºÙĬØ±": 5997,
      "éļı": 5998,
      "à¤¾à¤ľà¤¼": 5999,
      "Ġà¤®à¥ģà¤ĸà¥įà¤¯": 6000,
      "stiamoĠ": 6001,
      "jeĠvaisĠ": 6002,
      "à¤Ĥà¤ļ": 6003,
      "itÃłĠ": 6004,
      "edĠbyĠ": 6005,
      "Ġë³µ": 6006,
      "essoĠ": 6007,
      "ãģĬãĤĪ": 6008,
      "ãĤªãĥ³": 6009,
      "ãĥķãĤ£ãĥ¼ãĥĪ": 6010,
      "taĠ": 6011,
      "wat": 6012,
      "è¬": 6013,
      "à¤¤à¥įà¤°": 6014,
      "succ": 6015,
      "çĽĽ": 6016,
      "Ø±ÙĬÙĤ": 6017,
      "ÙĦØ§Ùĭ": 6018,
      "ãģłãģĳ": 6019,
      "ĠÑĤÐ¾Ð»ÑĮÐºÐ¾": 6020,
      "çı¾ä»£": 6021,
      "ĠÑĩÑĤÐ¾": 6022,
      "æĬĢæľ¯": 6023,
      "ĠÑģÐ²Ð¾": 6024,
      "l'hÃ©licopt": 6025,
      "ãĤ»ãĥĸãĥ³ãĢģ": 6026,
      "Ø³ÙħØ¹Ùĥ": 6027,
      "åıĭè°Ĭä¸ĥ": 6028,
      "fig": 6029,
      "à¥ĭà¤µ": 6030,
      "Ġà¤¹à¥Ī;": 6031,
      "dig": 6032,
      "ĠÐ¾Ð½Ð¸": 6033,
      "ĠÐºÐ¾ÑĤÐ¾": 6034,
      "ì§ĳ": 6035,
      "å¾¡": 6036,
      "ä¹İ": 6037,
      "ãĤ¤ãĥ³ãĥ": 6038,
      "ê¸°ë¥¼": 6039,
      "ãĢįãĤĴ": 6040,
      "Ð»ÑĮÐ½Ð¾": 6041,
      "Ã¨ĠstatoĠ": 6042,
      "ë³´ìĦł": 6043,
      "pub": 6044,
      "ĠÑģÑĤÑĢÐ°": 6045,
      "astronom": 6046,
      "èįī": 6047,
      "Ġì¹´": 6048,
      "aprÃ¨sĠ": 6049,
      "ax": 6050,
      "ous": 6051,
      "ä»½": 6052,
      "Ø§Ø°": 6053,
      "ìĿ¸ë¯¼": 6054,
      "ãĥĨãĥ¬": 6055,
      "åģ´": 6056,
      "activ": 6057,
      "iÃ¨reĠ": 6058,
      "ĠíĹ¬ë¦¬ì½¥íĦ°": 6059,
      "ĠëĨĴ": 6060,
      "ĠØ£Ø®Ø±Ùī": 6061,
      ",ĠÐ½Ðµ": 6062,
      "aireĠ": 6063,
      "ÑıÐ±": 6064,
      "åĪļ": 6065,
      "leĠb": 6066,
      "Ġper": 6067,
      "à¥ĢĠà¤°": 6068,
      "ëĵ±": 6069,
      "Ð¶Ñĥ": 6070,
      "ëĤľ": 6071,
      "åĩºçīĪ": 6072,
      "struc": 6073,
      "Ġ45": 6074,
      "éĹ¨": 6075,
      "æ¨Ļ": 6076,
      "Ġì¶©": 6077,
      "è¼ĥ": 6078,
      "à¥ĭà¤ª": 6079,
      "Ð´Ñĭ": 6080,
      "ä¸Ĭï¼Į": 6081,
      "ãĤ¿ãĤ¤": 6082,
      "istor": 6083,
      "Ġëĭ¬": 6084,
      "bienĠ": 6085,
      "Ġà¤¤à¤¥": 6086,
      "ĠÐ¾Ð±Ð»Ð°": 6087,
      "æıĲä¾Ľ": 6088,
      "hand": 6089,
      "kur": 6090,
      "çĴ": 6091,
      "enĠw": 6092,
      "Ġà¤¹à¥ĩà¤²à¥Ģà¤ķà¥īà¤ªà¥įà¤Ł": 6093,
      "à¥įà¤¯à¤µ": 6094,
      "èĪĪ": 6095,
      "çķ¥": 6096,
      "voy": 6097,
      "ĠìĹ°êµ¬": 6098,
      "è°ĥ": 6099,
      "íĻķìĿ¸": 6100,
      "ëĺĲíķľ": 6101,
      "ÐµÑĨ": 6102,
      "à¤¤à¤¾Ġà¤¹à¥Ĥà¤ģ": 6103,
      "omin": 6104,
      "quesĠ": 6105,
      "Ġíħ": 6106,
      "ÐµÐ½Ð°": 6107,
      "ĠÙĥØ¨ÙĬØ±": 6108,
      "ÑģÑĤÐ²Ñĥ": 6109,
      "ãĤĵãģ§": 6110,
      "ç½ĳ": 6111,
      "bene,Ġ": 6112,
      "ê¸ī": 6113,
      "<sub>r": 6114,
      "ĠìĦľìļ¸": 6115,
      "ãĥķãĥ¬ãĥ³ãĥīãĤ·ãĥĥãĥĹ": 6116,
      "ÑģÐ½Ð¾": 6117,
      "ĠÙĪØ¶Ø¹": 6118,
      "ãĤĴè¦ĭ": 6119,
      "Ġà¤ªà¥Īà¤°": 6120,
      "asci": 6121,
      "ãģĭãģª": 6122,
      "ç§¦": 6123,
      "ĠØ³Ø¨": 6124,
      "ÑĤÐ°Ðº": 6125,
      "national": 6126,
      "ĠëłĪ": 6127,
      "ĠìŀĦ": 6128,
      "ÑİÑīÐ¸": 6129,
      "Ð¾Ð¼Ð¸": 6130,
      "ÐµÐ¼Ð¸": 6131,
      "ãĤ«ãĥ¼": 6132,
      "ãģĹãģ¾ãģĹãģŁãĢĤ": 6133,
      "1990": 6134,
      "regist": 6135,
      "à¤®à¥ģà¤ĸ": 6136,
      "åĨľä¸ļ": 6137,
      "ìĹĲĠëĶ°ëĿ¼": 6138,
      "ubschrauberĠ": 6139,
      "d,Ġ": 6140,
      "jeĠn": 6141,
      "Ð¼Ð¾Ð¶": 6142,
      "ãĥ¼ãĤ¿": 6143,
      "ìĿ´ëĭ¤.Ġ": 6144,
      "ĠØ§ÙĦØ²": 6145,
      "ãĥĹãĥĪ": 6146,
      "æĸĩåŃ¦": 6147,
      "è¾¹": 6148,
      "ĠØ¯ÙĤÙĬ": 6149,
      "ĠdeĠlaĠ": 6150,
      "è©ķ": 6151,
      "ä¸ĩäºº": 6152,
      "ãĥĶãĤ¢": 6153,
      "wurdeĠ": 6154,
      "Ġìļ°ì£¼ë¹ĦíĸīìĤ¬": 6155,
      "chang": 6156,
      "quant": 6157,
      "åį¡": 6158,
      "è¿ŀ": 6159,
      "Ġgi": 6160,
      "ant,Ġ": 6161,
      "å¿Ĺ": 6162,
      "ãģĪãĤĭ": 6163,
      "æľĢé«ĺ": 6164,
      "ancoraĠ": 6165,
      "è·Ŀ": 6166,
      "æıĲåĩº": 6167,
      "à¤¾Ġà¤ª": 6168,
      "Ø¨Ø©ĠØ§ÙĦ": 6169,
      "ÑĢÐµÐ´": 6170,
      "ument": 6171,
      "å¥ı": 6172,
      "ation,Ġ": 6173,
      "ult": 6174,
      "Ø§Ø¦ÙĬ": 6175,
      "Ġ40": 6176,
      "äºĭä»¶": 6177,
      "far": 6178,
      "enĠwir": 6179,
      "ãĥ³ãĤ¹": 6180,
      "æĸ¹å¼ı": 6181,
      "Ġìłķë¶Ģ": 6182,
      "azz": 6183,
      "å®Įåħ¨": 6184,
      "éĵģè·¯": 6185,
      "Ġà¤ķà¥ĩĠà¤°à¥Ĥà¤ªĠà¤®à¥ĩà¤Ĥ": 6186,
      "kann": 6187,
      "oam": 6188,
      "will": 6189,
      "quandoĠ": 6190,
      "ackĠ": 6191,
      "à¤¾à¤°à¥Ģ": 6192,
      "vieneĠ": 6193,
      "ussĠ": 6194,
      "ãģĹãģ¦ãģĬãĤĬãĢģ": 6195,
      "Ð»ÐµÐ¹": 6196,
      "ä¸ĭéĻį": 6197,
      "ãģ«ãĤĪãĤĬ": 6198,
      "ĠíķĺëĤĺ": 6199,
      "ĠÐ¾ÑģÐ½Ð¾Ð²": 6200,
      "çŁŃ": 6201,
      "prÃ¼f": 6202,
      "yn": 6203,
      "à¤¾à¤Ł": 6204,
      "Ð±Ð»Ð¸": 6205,
      "åĨĻ": 6206,
      "ãĥĥãĥī": 6207,
      "æī¿": 6208,
      "åĪĨæŀĲ": 6209,
      "eĠpar": 6210,
      "Ġëª©": 6211,
      "ê¸Ģ": 6212,
      "Ġì¢ħ": 6213,
      "åĶ±": 6214,
      "ãģ¸ãģ®": 6215,
      "fern": 6216,
      "ia,Ġ": 6217,
      "vu": 6218,
      "Ġzu": 6219,
      "Ġíŀ": 6220,
      "osop": 6221,
      "ĠØŃØ§ÙĦ": 6222,
      "ÙħØ§ĠÙĬ": 6223,
      "ÑİÑĤÑģÑı": 6224,
      "éĸ¢ä¿Ĥ": 6225,
      "ĠÐ¶Ðµ": 6226,
      "ìĥī": 6227,
      "3ëħĦ": 6228,
      "ĠÑĪ": 6229,
      "ongĠ": 6230,
      "ãĤīãģ®": 6231,
      "ãĥ©ãĤ·ãĥ¥ãĥ¼ãĥĪ": 6232,
      "éĽ²": 6233,
      "Ġà¤¬à¤¨": 6234,
      "à¤¾Ġà¤¸à¤ķ": 6235,
      "åĲ¬å¾Ĺ": 6236,
      "05": 6237,
      "48": 6238,
      "cesĠ": 6239,
      "æ¾": 6240,
      "à¤¾Ġ": 6241,
      "à¤¿à¤°Ġà¤": 6242,
      "Ø¯Ø©": 6243,
      "åħ©": 6244,
      "å¤´": 6245,
      "ê²¬": 6246,
      "åº·": 6247,
      "Ã¤hr": 6248,
      "å½¢å¼ı": 6249,
      "èªįçĤº": 6250,
      "way": 6251,
      "ĠistĠ": 6252,
      "ħà¤ª": 6253,
      "ä¸ĵ": 6254,
      "ste": 6255,
      "çļĦï¼Į": 6256,
      "ilosop": 6257,
      "ãĤĴè¡Į": 6258,
      "ĠÐ½Ð¾ÑĢ": 6259,
      "conom": 6260,
      "beenĠ": 6261,
      "åĵĪ": 6262,
      "æĦıåĳ³": 6263,
      "seven.Ġ": 6264,
      "Ø§Ø±ÙĬØ®": 6265,
      "Ġà¤ªà¥Īà¤°à¤¾à¤¶": 6266,
      "ĵ¨": 6267,
      "à¤Ĥà¤¸": 6268,
      "unĠm": 6269,
      "eĠde": 6270,
      "íķĺìĤ°": 6271,
      "ĠØ¨Øª": 6272,
      "ĠØ¨ØŃ": 6273,
      "l'elicotter": 6274,
      "ledĠ": 6275,
      "æŃ·": 6276,
      "à¤¦à¥įà¤§": 6277,
      "å±¤": 6278,
      "æĿ¿": 6279,
      "Ġà¤ªà¥įà¤°à¤ķ": 6280,
      "ëĮĢíķľ": 6281,
      "ãĤªãĥ¼": 6282,
      "å¤ĸï¼Į": 6283,
      "ĠverordnungĠ": 6284,
      "7æľĪ": 6285,
      "åĺ": 6286,
      "ãĤĩ": 6287,
      "atic": 6288,
      "ĠÐ¿Ð¾ÐºÐ°": 6289,
      "iceĠ": 6290,
      "ĠÙģØ±": 6291,
      "ĠÙģÙĤØ·": 6292,
      "å¥ĩ": 6293,
      "åĲĮãģĺ": 6294,
      "Ġëĭ¤ìĭľ": 6295,
      "ĠíĻľ": 6296,
      "Ġëĵ¤ë¦½": 6297,
      "å¿ħè¦ģ": 6298,
      "2ëħĦ": 6299,
      "wo": 6300,
      "wereĠ": 6301,
      "ìĤ": 6302,
      "Ø§ØŃØ¯": 6303,
      "ÙħØ´": 6304,
      "aĠn": 6305,
      "ĠÙħØ´": 6306,
      "ãģ¦ãģĦãģ¾ãģĻ": 6307,
      "æĿĲ": 6308,
      "ëłĩ": 6309,
      "è®¸": 6310,
      "attitu": 6311,
      "ãĢıï¼Ī": 6312,
      "votreĠ": 6313,
      "dasĠistĠ": 6314,
      "å¢ŀåĬł": 6315,
      "ëĬĶĠê²ĥìĿĦ": 6316,
      "Ġìļ´ëıĻ": 6317,
      "yĠs": 6318,
      "reich": 6319,
      "Ġdis": 6320,
      "ĠdeĠc": 6321,
      "auc": 6322,
      "ì§¸": 6323,
      "Ð¾Ð»ÐµÐµ": 6324,
      "Ġà¤ķà¥ĩĠà¤Ĩ": 6325,
      "eĠsp": 6326,
      "ÐµÐ½Ð¸Ð¹": 6327,
      "íı´": 6328,
      "ÙĦÙħØ§ÙĨ": 6329,
      "ç¼ĸ": 6330,
      "ä¸Ńèı¯æ°ĳåľĭ": 6331,
      "techn": 6332,
      "Ġà¤ªà¥Īà¤°à¤¾à¤¶à¥Ĥà¤Ł": 6333,
      ".ĠØª": 6334,
      "7ëħĦ": 6335,
      "idĠ": 6336,
      "al,Ġ": 6337,
      "ÙģØ³": 6338,
      "ÙĩÙĪ": 6339,
      "ĠÙĪØª": 6340,
      "ÑħÐ°": 6341,
      "igenĠ": 6342,
      "çĶ¨ãģĦ": 6343,
      "æ¬§": 6344,
      "Ð°Ð½Ð¸Ð¸": 6345,
      "commeĠ": 6346,
      "å°ĳå¹´": 6347,
      "ÃªtreĠ": 6348,
      "ĠØ§ÙĦÙģØ¶Ø§Ø¡": 6349,
      "oĠc": 6350,
      "aceĠ": 6351,
      "Ã¨r": 6352,
      "ãĥªãĤ¹": 6353,
      "Ġbr": 6354,
      "å¯Į": 6355,
      "ãĤ³ãĥł": 6356,
      "Ġà¤ķà¥ĢĠà¤¤": 6357,
      "ĠíķĦ": 6358,
      "ĠìĹ¬ëŁ¬": 6359,
      "ÙĪÙĤØ¹": 6360,
      "à¥ģà¤°à¥Ĥ": 6361,
      "ãģ°ãĤĮ": 6362,
      "Ġà¤ķà¥ĩĠà¤ªà¥įà¤°": 6363,
      "Ø¹ØªÙĤØ¯ĠØ£ÙĨ": 6364,
      "ko": 6365,
      "erĠs": 6366,
      "Ġsi": 6367,
      "ĠÐºÑĢÐµ": 6368,
      "viel": 6369,
      "jeĠsuisĠ": 6370,
      "seven,Ġ": 6371,
      "Ġì¡´": 6372,
      "56": 6373,
      "ail": 6374,
      "à¤¾Ġà¤®": 6375,
      "alp": 6376,
      "ouĠ": 6377,
      "íķĺìĦ¸ìļĶ": 6378,
      "sec": 6379,
      "éĺ²": 6380,
      "ëįĶ": 6381,
      "è«¸": 6382,
      "orient": 6383,
      "ìĿ¼Ġ-ĠëĮĢíķľë¯¼êµŃìĿĺ": 6384,
      "ç¹Ķ": 6385,
      "ĠëĤĻíķĺìĤ°": 6386,
      "jeĠp": 6387,
      "yth": 6388,
      "âĢĺ": 6389,
      "tras": 6390,
      "ä¸Ńåħ±": 6391,
      "Ã¼h": 6392,
      "etĠdeĠ": 6393,
      "íĬ¸ë¡ľ": 6394,
      "à¤¨à¥ĩĠà¤¸": 6395,
      "ifĠ": 6396,
      "iquesĠ": 6397,
      "ĠìĻ¸": 6398,
      "ãģĵãĤĮãģ¯": 6399,
      "lim": 6400,
      "à¤¾Ġà¤ķ": 6401,
      "alementĠ": 6402,
      "à¤ķà¥įà¤¸": 6403,
      "ilĠv": 6404,
      "ãĤĭãģ®": 6405,
      "à¤°Ġà¤¨": 6406,
      "ãģĤãĢģ": 6407,
      "æķĪ": 6408,
      "ë§¤": 6409,
      "Ġì§Ī": 6410,
      "à¤¶à¥įà¤ļ": 6411,
      "ĠØ§ÙĦØ£Ø±Ø¯": 6412,
      "franc": 6413,
      "å»¶": 6414,
      "ãģŁãĤģãģ«": 6415,
      "durch": 6416,
      "queĠnousĠ": 6417,
      "4.Ġ": 6418,
      "adeĠ": 6419,
      "geg": 6420,
      "Ð½ÐµÐ¹": 6421,
      "à¥ĩà¤¯": 6422,
      "à¥ĩĠà¤°": 6423,
      "ãģ¦ãģĬãĤĬãĢģ": 6424,
      "æĪ»": 6425,
      "ØµÙĪÙĦ": 6426,
      "åī¯": 6427,
      "æĮī": 6428,
      "euer": 6429,
      "åĢĳ": 6430,
      "Ġíķľëĭ¤.": 6431,
      "ãĥŁãĥĭ": 6432,
      ".ĠÙģÙĬ": 6433,
      "à¤ķà¥įà¤¯": 6434,
      "è¿½": 6435,
      "anton": 6436,
      "ĠÙĨØ¸Ø§Ùħ": 6437,
      "è³ŀ": 6438,
      "heit": 6439,
      "ãĤĪãģĨãģ«ãģª": 6440,
      "Ġê³µê°Ħ": 6441,
      "linux": 6442,
      "withĠ": 6443,
      "ĠÐ¼ÐµÐ¶": 6444,
      "4Ġ": 6445,
      "dit": 6446,
      "çļĩ": 6447,
      "ìķħ": 6448,
      "å¿ľ": 6449,
      "ãģķãĤĮãĤĭãĢĤ": 6450,
      "stru": 6451,
      "ëĲĺëĬĶ": 6452,
      "Ġ58": 6453,
      "Ø§ÙĩØ²": 6454,
      "Ġà¤ķà¥ĩĠà¤¬à¤¾à¤¦": 6455,
      "i'm": 6456,
      "æ£ĢæŁ¥": 6457,
      "à¤¾Ġà¤Ķà¤°Ġà¤": 6458,
      "èªª": 6459,
      "ãĥ»ãĤ¢": 6460,
      "Ð½ÑĭÐ¼Ð¸": 6461,
      "æ²¹": 6462,
      "íĬ¹": 6463,
      "æ¥µ": 6464,
      "ãģ¤ãģ®": 6465,
      "ãĤªãĥķ": 6466,
      "ç¶Ń": 6467,
      "capit": 6468,
      "ĠÑĢÐ°Ð±Ð¾": 6469,
      "éķĩ": 6470,
      "ĠíĻĶ": 6471,
      "åĽĽå·Ŀ": 6472,
      "à¤łà¥Ģà¤ķĠà¤¹à¥Īà¥¤": 6473,
      "ç¯Ģ": 6474,
      "Ġà¤ıà¤µà¤Ĥ": 6475,
      "ĠØ¹Ø¯Ø¯": 6476,
      "ĠëıĮìķĦ": 6477,
      "\"Ġ": 6478,
      "ë´": 6479,
      "erh": 6480,
      "enĠzu": 6481,
      "ä½Ļ": 6482,
      "ä½Ľ": 6483,
      "ìĬ¹": 6484,
      "åįļ": 6485,
      "such": 6486,
      "Ġìķ¼": 6487,
      "à¤¦à¥įà¤¯": 6488,
      "Ð¾Ð³ÑĢÐ°": 6489,
      "Ġë³¼": 6490,
      "ëŁ¼": 6491,
      "ÑģÑĤÐ°Ð²Ð¸": 6492,
      "à¤¾à¤ĪĠà¤¦": 6493,
      "éĦ§": 6494,
      "that'sĠ": 6495,
      "03": 6496,
      "ÑĢÐ¾Ð¹": 6497,
      "oĠs": 6498,
      "à¤¤à¥ĩĠà¤¹": 6499,
      "trav": 6500,
      "ãģĭãĢģ": 6501,
      "ê¸°ëıĦ": 6502,
      "ãĤ³ãĥŁ": 6503,
      "ĠìĤ¬ìĿ´": 6504,
      "Ø¹Ø¯ÙĦ": 6505,
      "å¢Ĺ": 6506,
      "ìłĦíŀĪ": 6507,
      "çĪŃ": 6508,
      "Ġì°½": 6509,
      "ØĮĠÙĦÙĥÙĨ": 6510,
      "é¦Ļæ¸¯": 6511,
      "].Ġ": 6512,
      "donn": 6513,
      "sÃ¬": 6514,
      "Ùį": 6515,
      "ĠØ§ÙĨØª": 6516,
      "ĠìĤ°": 6517,
      "Ø©ĠØ¥ÙĦÙī": 6518,
      "Ø¨Ø§ÙĦ": 6519,
      "ãģ«éĸ¢": 6520,
      "eĠdasĠ": 6521,
      "ìłĪ": 6522,
      "ãģ¾ãĤĮ": 6523,
      "utz": 6524,
      "ï¼īãģ®": 6525,
      "ä¼ģ": 6526,
      "ì¹Ļ": 6527,
      "åĪ¶åº¦": 6528,
      "aĠperĠ": 6529,
      "ĠëĤĺíĥĢ": 6530,
      "werdenĠ": 6531,
      "íĹĺ": 6532,
      "éģĭåĭķ": 6533,
      "Ġë§İìĿĢ": 6534,
      "ê³µíĻĶêµŃ": 6535,
      "arriv": 6536,
      "ati": 6537,
      "ÐµÐ½ÑĤÐ°": 6538,
      "leĠl": 6539,
      "å°¤": 6540,
      "avantĠ": 6541,
      "ÑģÐºÐ¾Ðµ": 6542,
      "1980": 6543,
      "æ´»åĭķ": 6544,
      "environĠ": 6545,
      "33": 6546,
      "rich": 6547,
      "·¨": 6548,
      "ĠØ§Ø¨": 6549,
      "sĠofĠ": 6550,
      "an,Ġ": 6551,
      "ï¼Įä½ł": 6552,
      "Ø¬Ùĩ": 6553,
      "Ġê°Ħ": 6554,
      "à¥ģà¤Ĩ": 6555,
      "ë§Ĳ": 6556,
      "Ġà¤¸à¥ĩĠà¤¹": 6557,
      "egativ": 6558,
      "Ġê·¸ëĬĶ": 6559,
      "ãĤ¦ãĤ§": 6560,
      "ÐºÐ»ÑİÑĩÐ°": 6561,
      "çį²": 6562,
      "pon": 6563,
      "utĠ": 6564,
      "alĠc": 6565,
      "Ð»Ð°Ð½": 6566,
      "Ø¹ÙĪØ¯": 6567,
      "embl": 6568,
      "ç´¢": 6569,
      "ç«ł": 6570,
      "ëĵ¤ìĿĺ": 6571,
      "ãĥ¬ãĥ¼": 6572,
      "ĠvonĠ": 6573,
      "10æľĪ": 6574,
      "Ġê°ĢëĬ¥": 6575,
      "Ð¾Ð¶Ðµ": 6576,
      "contrÃ´": 6577,
      "keitĠ": 6578,
      "ĠëķĮë¬¸ìĹĲ": 6579,
      "400": 6580,
      "erd": 6581,
      "Ġê²Į": 6582,
      "ungĠdesĠ": 6583,
      "åı·ãĢģ": 6584,
      "ì¹ĺë¥¼": 6585,
      "eĠdell'": 6586,
      "ĠØ§ÙĦØ®Ø§Øµ": 6587,
      "ØĮĠÙĩÙĨØ§": 6588,
      "Ġà¤ľà¤¾à¤¤": 6589,
      "ÙĳØ©": 6590,
      "whenĠ": 6591,
      "ĠØ·Ø§ÙĦØ¨Ø§ÙĨ": 6592,
      "ä»»ä½ķ": 6593,
      "èİ·": 6594,
      "ãģıãģłãģķãģĦãĢĤ": 6595,
      "%ãĢĤ": 6596,
      "bundes": 6597,
      "hadĠ": 6598,
      "o'": 6599,
      "ê´ĳ": 6600,
      "enĠderĠ": 6601,
      "å¹²": 6602,
      "ĠÐºÑĥ": 6603,
      ",Ġà¤«": 6604,
      "à¤°à¥įà¤¡": 6605,
      "à¤°à¥įà¤ķ": 6606,
      "ĠØ³Øª": 6607,
      "ĠØ£ÙĨĠØª": 6608,
      "inclu": 6609,
      "è°¢": 6610,
      "enzaĠ": 6611,
      "ĠØ«Ùħ": 6612,
      "íĴĪ": 6613,
      "ĠÐ¿Ð¾Ð»ÑĥÑĩÐ¸": 6614,
      "circaĠ": 6615,
      "i-": 6616,
      "ï¼Įæľī": 6617,
      "retr": 6618,
      "Ø·Ø±": 6619,
      "Ġ26": 6620,
      "à¤¾à¤¨à¥įà¤¯": 6621,
      "éģĬ": 6622,
      "éĹŃ": 6623,
      "12æľĪ": 6624,
      "Ġëª¨ëĳĲ": 6625,
      "çľĭèµ·æĿ¥": 6626,
      "ĠÑģÑĤÐ¾ÑĢÐ¾": 6627,
      "Ø§Ø¦Ø¯ĠØ§ÙĦÙģØ¶Ø§Ø¡": 6628,
      "Ġìľ¤ë³´ìĦł": 6629,
      "Ġëĸ¨ìĸ´": 6630,
      "<sub>r</sub>": 6631,
      "2.Ġ": 6632,
      "bin": 6633,
      "bonn": 6634,
      "ldĠ": 6635,
      "pe": 6636,
      "pot": 6637,
      "Ã©,Ġ": 6638,
      "ë³ĳ": 6639,
      "ãģĹãģ¾ãģĻãĢĤ": 6640,
      "è¿ĻäºĽ": 6641,
      "lichenĠ": 6642,
      "è¿Ľåħ¥": 6643,
      "Ġà¤¯à¤¹à¤¾à¤ģ": 6644,
      "ë¬´íĺĦ": 6645,
      "å®ĮæĪĲ": 6646,
      "ĠÙħØ§ĠÙĬ": 6647,
      "éħ¸": 6648,
      "Ġë°°ìļ°": 6649,
      "haupt": 6650,
      "49": 6651,
      "t.": 6652,
      "ĠíķĺëĬĶ": 6653,
      "ĪĦ": 6654,
      "à¤Ľ": 6655,
      "inv": 6656,
      "ÙĥÙĬ": 6657,
      "utt": 6658,
      "ĠÐ¼Ð½Ðµ": 6659,
      "opol": 6660,
      "å¼º": 6661,
      "ë©´ìĦľ": 6662,
      "ÙĦÙĥÙĨ": 6663,
      "íļ": 6664,
      "arist": 6665,
      "ÙĤØ§Ø¦ÙĤ": 6666,
      "ãĥ¼ãģ®": 6667,
      "ĠÙħØ«ÙĦ": 6668,
      "Ð´Ð¾Ð²": 6669,
      "empl": 6670,
      "ØµØ§ÙĦ": 6671,
      "è¾½": 6672,
      "éĺŁ": 6673,
      "Ġìĸ»": 6674,
      "Ġà¤¹à¥Īà¥¤Ġà¤¯à¤¹": 6675,
      "à¤¾à¤¸à¥įà¤¤à¤µ": 6676,
      "Ġì½Ķ": 6677,
      "ÙħØ§ÙĦ": 6678,
      "queĠc": 6679,
      "ĠØ§ÙĦÙħØ¸": 6680,
      "liv": 6681,
      "å½¹": 6682,
      "Ġìĺ¬": 6683,
      "à¤¾à¤Ĥà¤¤": 6684,
      "èĪªç©º": 6685,
      "éĺ¿çĪ¾": 6686,
      "à¤¨à¤¾Ġà¤ļà¤¾à¤¹": 6687,
      "ĠÑĨÐµÐ½ÑĤ": 6688,
      "ç»§ç»Ń": 6689,
      "gra": 6690,
      "tex": 6691,
      "ÐµÐ½Ñĭ": 6692,
      "versoĠ": 6693,
      "ãĥ¼ãĥ©": 6694,
      "ãĥ¼ãĥĲ": 6695,
      "schri": 6696,
      "ìłķìĭĿ": 6697,
      "Ġë²ķ": 6698,
      "zeich": 6699,
      "Ġì²ĺ": 6700,
      "ĠÑĩÐµÑĤ": 6701,
      "çĬ¶æĢģ": 6702,
      "47": 6703,
      "9ëħĦ": 6704,
      "9æľĪ": 6705,
      "nehm": 6706,
      "ers": 6707,
      "Ø¹Ø¨": 6708,
      "ili": 6709,
      "åĪĽ": 6710,
      "à¤¤à¥įà¤¯": 6711,
      "åŃ£": 6712,
      "imper": 6713,
      "à¤°à¥įà¤ľ": 6714,
      "ê·¸ëĬĶ": 6715,
      "essereĠ": 6716,
      "ÐºÐ°Ð·Ð°": 6717,
      "Ġê·¸ê²ĥ": 6718,
      "nousĠs": 6719,
      "à¤¿à¤¸à¥įà¤¤": 6720,
      "ĠíķľêµŃ": 6721,
      "medi": 6722,
      "Ã¤tig": 6723,
      "ãģĬãĤĪãģ³": 6724,
      "hol": 6725,
      "Ġì¼": 6726,
      "oĠeĠ": 6727,
      "Ø¨ÙĪÙĦ": 6728,
      "à¤®à¥ĩà¤°": 6729,
      "appl": 6730,
      "ĠÙĦØ£": 6731,
      "asserĠ": 6732,
      "éĢļå¸¸": 6733,
      "å£²": 6734,
      "Ġà¤ķà¤¾Ġà¤µ": 6735,
      "ãĤ¨ãĤ¸": 6736,
      "Ġ97": 6737,
      "Ġà¤ķà¤°Ġà¤¦": 6738,
      "ç¶ĵæ¿ŁåŃ¸": 6739,
      "pen": 6740,
      "chem": 6741,
      "un'": 6742,
      "ìĹ´": 6743,
      "esĠs": 6744,
      "eĠdeĠc": 6745,
      "ìĿ´íĦ°": 6746,
      "à¤¸à¥įà¤¯": 6747,
      "ÙĬØ©ØĮ": 6748,
      "Ġà¤ķà¥ĩĠà¤ħ": 6749,
      "à¤µà¤¾à¤ľà¤¼": 6750,
      "åĬĩ": 6751,
      "ë°°": 6752,
      "Ø¸Ùħ": 6753,
      "ĠÐ²Ð°ÑĪ": 6754,
      "ĠÐ²Ð¾ÐµÐ½": 6755,
      "$$$$": 6756,
      "å®ĩèĪªåĳĺ": 6757,
      "1æľĪ": 6758,
      "8ëħĦ": 6759,
      "ÙĬØ²": 6760,
      "inĠdenĠ": 6761,
      "ÙĪØ§Ø±": 6762,
      "redĠ": 6763,
      "Ø¹Ø§Øª": 6764,
      "ĠÐ¸ÑģÑĤÐ¾": 6765,
      "éĢĢ": 6766,
      "æĿİ": 6767,
      "è¡ĮãĤıãĤĮ": 6768,
      "2020": 6769,
      "licheĠ": 6770,
      "Ġê±´": 6771,
      "å½±åĵį": 6772,
      "à¥ĩà¤Łà¥įà¤°à¥ĭ": 6773,
      "æĢĿãģĦ": 6774,
      "è¤ĩ": 6775,
      "ÙĦÙĬÙĨ": 6776,
      ".Ġs": 6777,
      "Ø±Ø§Øª": 6778,
      "Ø©ĠØ¹ÙĦÙī": 6779,
      "Ð¼ÐµÑĤ": 6780,
      "ãģŁãģł": 6781,
      "ìĹĲëıĦ": 6782,
      "ĠØ¨ÙĦ": 6783,
      "ìĿĦĠìĿ´": 6784,
      "åĪ°äºĨ": 6785,
      "schir": 6786,
      "å²©": 6787,
      "à¤¾à¤ıà¤Ĥ": 6788,
      "work": 6789,
      "ihnenĠ": 6790,
      "club": 6791,
      "ãĤ¨ãĤ¸ãĥĹãĥĪ": 6792,
      "mi": 6793,
      "wel": 6794,
      "on'tĠ": 6795,
      "ãĢĤ19": 6796,
      "unoĠ": 6797,
      "à¥¤Ġà¤¸": 6798,
      "çĶ²": 6799,
      "Ġà¤ªà¥įà¤²": 6800,
      "à¥įà¤°à¤¹": 6801,
      "Ġà¤°à¤¾à¤·à¥įà¤Łà¥įà¤°": 6802,
      "ç«¯": 6803,
      "ĠØ£ÙĨĠÙĬ": 6804,
      "åįĹéĥ¨": 6805,
      "à¤¨à¥ĩĠà¤ª": 6806,
      "ä¿ĿæĮģ": 6807,
      "sident": 6808,
      "ĠÐ¿ÑĢÐ°Ð²Ð¸ÑĤÐµÐ»ÑĮ": 6809,
      "íĵ¨": 6810,
      "Ġo<sub>2</sub>": 6811,
      "Ø§Ø¹Ø¯": 6812,
      "ÙĥØ¯": 6813,
      "à¥ĭà¤¡": 6814,
      "å®³": 6815,
      "oleĠ": 6816,
      "à¤¸à¤Ĥ": 6817,
      "abb": 6818,
      "ĠÐ¼Ñĥ": 6819,
      "åĪĨé¡ŀ": 6820,
      "Ã¶reĠ": 6821,
      "èĢħãģ®": 6822,
      "ÙĬØ§Ø³": 6823,
      "ãĥĲãĤ¤": 6824,
      "ãģĿãĤĮãĤĴ": 6825,
      "Ð¾ÑĤÐ¾Ð²": 6826,
      "proz": 6827,
      "åĶ¯": 6828,
      "ãĤ¸ãĥ£ãĥ³": 6829,
      "ãĤ³ãĥ³ãĥĶ": 6830,
      "over": 6831,
      "polit": 6832,
      "ĠtoĠ": 6833,
      "ÙĦØ§Ø«": 6834,
      "aĠt": 6835,
      "iĠf": 6836,
      "à¥Īà¤²": 6837,
      "ãĤ¤ãĤ¹ãĥ©": 6838,
      "ØµØ¨ØŃ": 6839,
      "æĹ¥æľ¬èªŀ": 6840,
      "èĩºçģ£": 6841,
      "jahr": 6842,
      "mor": 6843,
      "nah": 6844,
      "Ð¸Ð½": 6845,
      "atu": 6846,
      "ÑģÑĤÐµÐ¼": 6847,
      "íķĺì§Ģë§Į": 6848,
      "ãģ¾ãģĹãģŁ": 6849,
      "éĢ±": 6850,
      "ĠØªØ±": 6851,
      "Ð³Ñĥ": 6852,
      "Ø·ÙĦØ§ÙĤ": 6853,
      "plan": 6854,
      "ãĤ¸ãĤ¢": 6855,
      "âĢĿï¼Į": 6856,
      "intern": 6857,
      "ĠØ§ÙĦØ¯ÙĪÙĦ": 6858,
      "soci": 6859,
      "à¤¨à¥įà¤¹à¥ĭà¤Ĥ": 6860,
      "ãĥĹãĥ¬ãĤ¹": 6861,
      "éłĨèª¿": 6862,
      "cin": 6863,
      "ë¨¸": 6864,
      "ons,Ġ": 6865,
      "cheĠp": 6866,
      "aug": 6867,
      "ĠØªØª": 6868,
      "ä¹±": 6869,
      "ĠÙħÙĨĠØ£": 6870,
      "å¥½ï¼Į": 6871,
      "ÑĨÐ¸Ð¾Ð½": 6872,
      ",ĠÐºÐ¾Ð³Ð´Ð°": 6873,
      "æ®ĭ": 6874,
      "çµĦç¹Ķ": 6875,
      "ĠÐ¿Ð°ÑĢÐ°ÑĪ": 6876,
      "aĠÃ¨Ġ": 6877,
      "reli": 6878,
      "ãĤ¤ãĥ©ãĥ³": 6879,
      "ĠÙĤØ¯Ùħ": 6880,
      "Ġvo": 6881,
      "ìĻ¸": 6882,
      "éĥ½å¸Ĥ": 6883,
      "åı¤ä»£": 6884,
      "à¤¾à¤ªà¤¸": 6885,
      "ĠÙĬÙħÙĥÙĨÙĥ": 6886,
      "è®¡ç®Ĺæľº": 6887,
      "å·´å°¼äºŀ": 6888,
      "ĠÐ´ÐµÐ¹ÑģÑĤÐ²Ð¸": 6889,
      "éĺ¿çĪ¾å·´å°¼äºŀ": 6890,
      ":Ġm": 6891,
      "mitt": 6892,
      "¬à¤¹à¥ģà¤¤": 6893,
      "reb": 6894,
      "Ø¹Ø·": 6895,
      "ampl": 6896,
      "ichĠd": 6897,
      "éĻ½": 6898,
      "ÐµÑĢÐ¼": 6899,
      "Ø®Øª": 6900,
      "à¥Īà¤Ĥà¤¡": 6901,
      "åī²": 6902,
      "ç´ļ": 6903,
      "Ġà¤ªà¥įà¤°à¤¾à¤ªà¥įà¤¤": 6904,
      "ÐºÐ°Ð·": 6905,
      "ëĲĺìĹĪëĭ¤.Ġ": 6906,
      "íĥĿ": 6907,
      "ĠÐ¿Ð¾Ð»Ð¸": 6908,
      "oh,Ġ": 6909,
      "ĠíĮĲ": 6910,
      "æ²³åįĹ": 6911,
      "ĠÑĤÐµÑĢ": 6912,
      "carbur": 6913,
      "ãĤŃãĥ£ãĥĵ": 6914,
      "çĭ¬ç«ĭ": 6915,
      ",ĠÐ·Ð°": 6916,
      "neu": 6917,
      "pouv": 6918,
      "alĠp": 6919,
      "ÙģØª": 6920,
      "eteĠ": 6921,
      "å¾Ĵ": 6922,
      "å¸«": 6923,
      "èĢģ": 6924,
      "æĻº": 6925,
      "çİ¯": 6926,
      "æĻĤæľŁ": 6927,
      "è»Ĭ": 6928,
      "à¥Ĥà¤¸à¤°": 6929,
      "æĦŁè§ī": 6930,
      "ĠÐ³Ð¾ÑģÑĥÐ´Ð°ÑĢÑģÑĤÐ²ÐµÐ½": 6931,
      "studi": 6932,
      "9-": 6933,
      "usedĠ": 6934,
      "īà¤¡à¤¼à¤¾à¤¨": 6935,
      "à¥ĩà¥¤Ġà¤": 6936,
      "ĠØ§ÙĦØ¨Ø±": 6937,
      "Ø±Ø§Ø¡": 6938,
      "oriĠ": 6939,
      "ä»ª": 6940,
      "à¤Ĺà¤°Ġà¤": 6941,
      "à¥ģà¤ı": 6942,
      "Ã©tÃ©Ġ": 6943,
      "ãģĳãģ¦": 6944,
      "å¾Įï¼Į": 6945,
      "éĤĦ": 6946,
      "aientĠ": 6947,
      "ihreĠ": 6948,
      "ĠêµŃê°Ģ": 6949,
      "ĠØ¬ÙĬØ¯Ø©": 6950,
      "èĢĥãģĪ": 6951,
      "åĲ¦å®ļ": 6952,
      "bisĠ": 6953,
      "rapp": 6954,
      "vĠverordnungĠ": 6955,
      "Ġà¤ķà¥ĥ": 6956,
      "itz": 6957,
      "ĠØªÙĦÙĥ": 6958,
      "å¸Ń": 6959,
      "ä¼¦": 6960,
      "ĠÙģÙĬĠØ£": 6961,
      "ãĤ¤ãĥ³ãĥī": 6962,
      "ÑĢÐ¾Ð½": 6963,
      "ìĬµëĭĪëĭ¤;": 6964,
      "2011": 6965,
      "åĮĹéĥ¨": 6966,
      "åĪ¶å¾¡": 6967,
      "ÙĤØ¯Ùħ": 6968,
      "ĠØ±Ø§Ø¦Ø¯ĠØ§ÙĦÙģØ¶Ø§Ø¡": 6969,
      "ë³´ëĭ¤": 6970,
      "ĠÐ¿ÑĢÐ¾Ð¸Ð·": 6971,
      "ĠìŀĳëıĻ": 6972,
      "å®ĩå®ĻèĪ¹": 6973,
      "ãĥĻãĥ«": 6974,
      "Ġà¤ķà¥Īà¤ªĠà¤ķà¥īà¤®": 6975,
      ".ĠÙĨØŃÙĨ": 6976,
      "isbnĠ97": 6977,
      "ĠìĥĪ": 6978,
      "ĠëĺĲëĬĶ": 6979,
      "ĠÐ¿ÑĢÐ¾Ð´Ð¾Ð»": 6980,
      "86": 6981,
      "´íĵ¨": 6982,
      "èĸ": 6983,
      "ĠØ§ÙĦØ¨ÙĦ": 6984,
      "ĠØ¨Ùħ": 6985,
      "ë¥Ļ": 6986,
      "ãĥ¼ãĥŀ": 6987,
      "ãģĭï¼Ł": 6988,
      "ãĤ¤ãĥŃ": 6989,
      "ÐµÐ½Ð¸Ñİ": 6990,
      "ãĤĪãģı": 6991,
      "Ġà¤¹à¥ĭà¤¤à¤¾Ġà¤¹à¥Ī": 6992,
      "georg": 6993,
      "manu": 6994,
      "èĪªå¤©": 6995,
      "ãĤīãĤĮãĤĭ": 6996,
      "ãĥĶãĤ¢ãĥİ": 6997,
      ".000": 6998,
      "ĠØ§ÙĦØ§Øª": 6999,
      "ï¼Įä¸į": 7000,
      "arab": 7001,
      "atom": 7002,
      "rek": 7003,
      "Ġà¤ªà¥Ĥà¤°": 7004,
      "leĠpar": 7005,
      "ĠÐ¾Ð½": 7006,
      "ãĤĤãģĤãĤĭãĢĤ": 7007,
      "ÐµÐ½Ð¸ÐµÐ¼": 7008,
      "Ġwith": 7009,
      "edom": 7010,
      "æŀģ": 7011,
      "éļİ": 7012,
      "their": 7013,
      "æģ©": 7014,
      "éłĺåŁŁ": 7015,
      "ãģĿãģĹãģ¦ãĢģ": 7016,
      "æ¦Ĥå¿µ": 7017,
      ".ĠÐº": 7018,
      "te,Ġ": 7019,
      "ug": 7020,
      "ØŁ": 7021,
      "ÙĨØ¹Ùħ": 7022,
      "orbit": 7023,
      "progr": 7024,
      "ìĿĦĠë°Ľ": 7025,
      "ë¦¼": 7026,
      "Ø¶Ø§Ùģ": 7027,
      "å¹³åĿĩ": 7028,
      "under": 7029,
      "ĠìŀĲìĭł": 7030,
      "è¿ĲåĬ¨": 7031,
      "bild": 7032,
      "ĠØ§ÙĦØ¹Ø±Ø¨ÙĬØ©": 7033,
      "ĠÐ²ĠÐ¿Ð¾ÑĢÑıÐ´": 7034,
      "sk": 7035,
      "vÃ©ri": 7036,
      "ĠeĠ": 7037,
      ",ĠdieĠ": 7038,
      "Ð´ÐµÑĢ": 7039,
      "ìĦ¼": 7040,
      "siaĠ": 7041,
      "termin": 7042,
      "2017": 7043,
      "ãĢįãģ¨ãģĦãģĨ": 7044,
      "ãģĿãģĨ": 7045,
      "æŃ£å¼ı": 7046,
      "gier": 7047,
      "à¤¾à¤¹à¤ķ": 7048,
      "åĦª": 7049,
      "ë¹Ī": 7050,
      "oisĠ": 7051,
      "vom": 7052,
      "å¦": 7053,
      "ÐµÑĢÐ°": 7054,
      ",Ġh": 7055,
      "Ġà¤¹à¤¿à¤¨à¥įà¤¦": 7056,
      "auchĠ": 7057,
      "Ġmon": 7058,
      "ê³ł,": 7059,
      "Ø§ÙħÙĦØ©": 7060,
      "æ³ķå¾ĭ": 7061,
      "ãģ¤ãģĭ": 7062,
      "Ġë²ł": 7063,
      "Ġà¤ķà¥ĢĠà¤¸": 7064,
      "à¤ķà¥įà¤·à¤¿à¤£": 7065,
      "ĠìĦłìĪĺ": 7066,
      "ĠÐ´Ð¾Ð»Ð¶": 7067,
      "ĠÐ¼ÐµÐ¶Ð´Ñĥ": 7068,
      "6æľĪ": 7069,
      "85": 7070,
      "yĠp": 7071,
      "¤Ħ": 7072,
      "Ġà¤Ī": 7073,
      "tĠs": 7074,
      "ÐºÐ¾Ð»": 7075,
      "Ø³ÙĦØ§Ùħ": 7076,
      "ĠÐ¿Ð¾Ð¿": 7077,
      "laĠn": 7078,
      "ãģĮå¤ļ": 7079,
      "trad": 7080,
      "Ð¿Ð¾Ñģ": 7081,
      "à¥ĩà¤Ĥà¤Ł": 7082,
      "ìķķ": 7083,
      "ëıĮ": 7084,
      "Ð±Ñĭ": 7085,
      "æķħ": 7086,
      "eĠsonoĠ": 7087,
      "Ø§Ø±ØªÙģ": 7088,
      "Ġ196": 7089,
      "çĶŁæ´»": 7090,
      "ãĥīãĥ©": 7091,
      "ëĦ·": 7092,
      "ĠìĹ°ë£Į": 7093,
      "ĠÐ¾ÐºÐ¾Ð»Ð¾": 7094,
      "ĠÑĤÐ°ÐºÐ¶Ðµ": 7095,
      "Ð¿ÐµÑĢÑĮ": 7096,
      "ãĤ³ãĥ³ãĥĶãĥ¥ãĥ¼": 7097,
      "eig": 7098,
      "Åĵ": 7099,
      "ĠÙĬÙĨ": 7100,
      "ĵ°": 7101,
      "enst": 7102,
      "start": 7103,
      "trop": 7104,
      "ìĿĦĠê²ĥ": 7105,
      "äººãģ®": 7106,
      "ê°ĢĠëĲĺ": 7107,
      "å¼ł": 7108,
      "à¤Łà¤¨": 7109,
      "ÙĪØ±ÙĬ": 7110,
      "Ġëª»": 7111,
      "grand": 7112,
      "éĤ¦": 7113,
      "voir": 7114,
      "éĢ£è¼ī": 7115,
      "ì¶Ķ": 7116,
      "à¥ģà¤·à¥įà¤Ł": 7117,
      "lincoln": 7118,
      "ĠØ§Ø¨ÙĨ": 7119,
      "n'": 7120,
      "ÑģÑģÐ¸": 7121,
      "unsĠ": 7122,
      "Ð¿ÑĢÐ¾": 7123,
      "Ġmod": 7124,
      "ãĤ¹ãģ®": 7125,
      "à¤¿à¤¯à¤Ĥà¤¤à¥įà¤°": 7126,
      "Ġà¤¬à¤¤": 7127,
      "ç«Ļ": 7128,
      "è¾²": 7129,
      "è¾ĸ": 7130,
      "Ġëĵľ": 7131,
      "Ø±ÙĬØ§Ø¶": 7132,
      "íĸĪìĬµëĭĪëĭ¤.Ġ": 7133,
      "íİĺ": 7134,
      "Ġê³¼íķĻ": 7135,
      "utilis": 7136,
      "ÙħØ¯": 7137,
      "prof": 7138,
      "à¤ªà¥ģà¤°": 7139,
      "ãĤ¹ãĥĿ": 7140,
      "umbi": 7141,
      "2014": 7142,
      "ÑĤÐ¸Ñı": 7143,
      "Ġì§ĢìĹŃ": 7144,
      "ĠìłķëıĦ": 7145,
      "ĠÐ»Ñİ": 7146,
      "ĠÐ²Ð°Ð¼": 7147,
      "ç§ģãģ®": 7148,
      "Ġëħ¼": 7149,
      "åĸĦ": 7150,
      "à¤¾à¤ıà¤ģ": 7151,
      "à¤Ĥà¤§à¤¨": 7152,
      "èĮĥ": 7153,
      "36": 7154,
      "5æľĪ": 7155,
      "cal": 7156,
      "ĠestĠ": 7157,
      "ãĤĨ": 7158,
      "Ø§ÙĪÙĦ": 7159,
      "ÙĤÙħ": 7160,
      "Ġsur": 7161,
      "trÃ¤g": 7162,
      "ãģªãĤī": 7163,
      "ìĿĦĠìĪĺ": 7164,
      ",Ġà¤Ķà¤°Ġà¤": 7165,
      "anderĠ": 7166,
      "ãĥªãĤ¹ãĥĪ": 7167,
      "åľ°åįĢ": 7168,
      "ë§ģ": 7169,
      "Ø§Ø¦ÙĦ": 7170,
      "à¤·à¥įà¤": 7171,
      "stateĠ": 7172,
      "embleĠ": 7173,
      "ä»Ģä¹Ī": 7174,
      "ãĥĹãĥ¬ãĤ¹ãĥªãĥ¼": 7175,
      "bet": 7176,
      "cr": 7177,
      "maisĠ": 7178,
      "ÑĤÐ²ÐµÑĢ": 7179,
      "à¥ĩà¥¤": 7180,
      "ï¼Įåħ¶": 7181,
      "äº¦": 7182,
      "ØĮĠÙĬ": 7183,
      "à¤ªà¥Ĥ": 7184,
      "Ø¬Ø¯": 7185,
      "åºķ": 7186,
      "ãģĭãĤĮ": 7187,
      "Ø´Ø§Ø±": 7188,
      "en,ĠdieĠ": 7189,
      "ìĽĮ": 7190,
      "ëħĲ": 7191,
      "ãĢįï¼Ī": 7192,
      "ç´°": 7193,
      "åģľ": 7194,
      "ç¿Ĵ": 7195,
      ".ĠÙĦÙĤØ¯": 7196,
      "ì¸ł": 7197,
      "ÑģÑĤÐ°Ð²Ð»Ñı": 7198,
      "ĠÐ°ÑĢÐ¼Ð¸": 7199,
      "ĠÐ½ÐµÐ¼Ð½Ð¾Ð³Ð¾": 7200,
      "men": 7201,
      "ĠãĢĬ": 7202,
      "Ð¸ÑĤÐµ": 7203,
      "is.Ġ": 7204,
      "ìĿ´ìħĺ": 7205,
      "ĠÙĦÙĥ": 7206,
      "å½ķ": 7207,
      "2015": 7208,
      "ĠìĭĿ": 7209,
      "æĬĹ": 7210,
      "gew": 7211,
      "partic": 7212,
      "Ġà¤¸à¥įà¤¥à¤¾à¤¨": 7213,
      "à¤¿à¤ľà¥įà¤ŀà¤¾à¤¨": 7214,
      "Ġë§Įëĵ¤": 7215,
      "y-": 7216,
      "µà¤¹": 7217,
      "ĠÑİ": 7218,
      "ï¼ħ": 7219,
      "çļĦçłĶç©¶": 7220,
      "aseĠ": 7221,
      "ĠÐ´Ð²Ð¸": 7222,
      "Ð³Ð»Ñı": 7223,
      "leich": 7224,
      "osaĠ": 7225,
      "æ¸Ī": 7226,
      "åħ³éĹŃ": 7227,
      "sĠtoĠ": 7228,
      "ÙħØ§ÙĨ": 7229,
      "ÙĪÙī": 7230,
      "ÃłĠs": 7231,
      "à¤¶à¥įà¤¯": 7232,
      "æĮ¯": 7233,
      "ãģĭãĤīãĢģ": 7234,
      "Ġà¤Ńà¤¾à¤·": 7235,
      "éłŃ": 7236,
      "ĠÐ¾Ð±ÑĬ": 7237,
      "æĵļ": 7238,
      "èĭ±å°º": 7239,
      "aggioĠ": 7240,
      "æ¨¡å¼ı": 7241,
      "capĠcom.Ġ": 7242,
      "ãģĹãģĭãģĹãĢģ": 7243,
      "3æľĪ": 7244,
      "lam": 7245,
      "negativ": 7246,
      "æĲ": 7247,
      "ļà¤²": 7248,
      "ãĤ¡": 7249,
      "à¥ĩĠà¤¥": 7250,
      "ä»ĭ": 7251,
      "ØĮĠÙĨ": 7252,
      "à¥ĢĠà¤¶": 7253,
      "ìĿĦĠíĨµíķ´": 7254,
      "vert": 7255,
      "ãģ¦ãģĦãģŁ": 7256,
      "terr": 7257,
      "Âł%": 7258,
      "æİ¢": 7259,
      "ÙĪØ±ÙĬØ©": 7260,
      "Ð´ÐµÐ»Ð°": 7261,
      "ĠÑĦÑĢÐ°Ð½": 7262,
      "ç±į": 7263,
      "indic": 7264,
      "ì°°": 7265,
      "ĠìĦ¸ê³Ħ": 7266,
      "çŁ¥éģĵ": 7267,
      "ĠÐ¼Ð¸Ð½ÑĥÑĤ": 7268,
      "ãĤĭãģĵãģ¨ãĤĴ": 7269,
      "unĠpo'": 7270,
      "ertain": 7271,
      "Ġê³ĦìĨį": 7272,
      "ÙģØ¶Ø§Ø¦ÙĬØ©": 7273,
      "Ġíİ¸": 7274,
      "ë¯¼ì£¼ì£¼ìĿĺ": 7275,
      "kv": 7276,
      "osi": 7277,
      "alist": 7278,
      "unterĠ": 7279,
      "ĠÐ²Ð¾Ñģ": 7280,
      "çĶ·": 7281,
      "à¤¾Ġà¤°": 7282,
      "è¡Ģ": 7283,
      "åĽ½æ°ĳ": 7284,
      "ëħķ": 7285,
      "ìĺ¨": 7286,
      "ÑĨÐ¸Ñİ": 7287,
      "æĿ±äº¬": 7288,
      "bereit": 7289,
      "ØŃØ¨ÙĭØ§": 7290,
      "ĠØ§ÙĦØ£Ø±Ø¯ÙĨ": 7291,
      "nousĠsommesĠ": 7292,
      "dar": 7293,
      "Ģë¡ľ": 7294,
      "ÑĤÑĢ": 7295,
      "à¥ĩĠà¤¦": 7296,
      "à¤¨à¥įà¤¤": 7297,
      "itionĠ": 7298,
      "eĠdeĠs": 7299,
      "Ġà¤ªà¥ģà¤°": 7300,
      "ichĠm": 7301,
      "ĠØ§ÙĦÙħØ³Øª": 7302,
      "åĽ½ãģ®": 7303,
      "à¤¿à¤¯à¤¾à¤ģ": 7304,
      "ãģĿãģĵ": 7305,
      "ĠØŃØ±": 7306,
      "Ø§Ø¯ÙĬ": 7307,
      "é«ĺåº¦": 7308,
      "ÑĢÑĥÐ¿": 7309,
      "enseĠ": 7310,
      "affir": 7311,
      "éªĮ": 7312,
      "origin": 7313,
      "jim": 7314,
      "ron": 7315,
      "Ĵ¤": 7316,
      "erdeĠ": 7317,
      "Ð¸ÑĢÐ°": 7318,
      "aĠaĠ": 7319,
      "ÑĤÐ¾ÑĢÑĭ": 7320,
      "ofĠs": 7321,
      "ãĤ¢ãĥĿ": 7322,
      "éģĹ": 7323,
      "à¤°à¥įà¤¨": 7324,
      "æµĭ": 7325,
      "à¤¬à¥įà¤¦": 7326,
      "territ": 7327,
      "ogn": 7328,
      "useĠ": 7329,
      "å¾Įãģ®": 7330,
      "éĸĵãģ®": 7331,
      "Ø¨ÙĦØº": 7332,
      "ĠØ¨Ø§ÙĦÙħ": 7333,
      "à¥ĩà¤µà¤²": 7334,
      "ê³µëª¨": 7335,
      "íĸĪìĬµëĭĪëĭ¤.": 7336,
      "richt": 7337,
      "éī": 7338,
      "éĬ": 7339,
      "steh": 7340,
      "ãģ¨ãģĻãĤĭ": 7341,
      "åĽ£": 7342,
      "å°ļ": 7343,
      "ÙĪÙĦØ§": 7344,
      "ãģĪãģ°": 7345,
      "rÃ©c": 7346,
      "Ð¾Ð¿Ð»Ð¸": 7347,
      "mehr": 7348,
      "ëĲľëĭ¤.": 7349,
      "Ġë¯¸êµŃ": 7350,
      "èĺĩ": 7351,
      "ãĥĨãĥ¬ãĥĵ": 7352,
      "çĴ°": 7353,
      "benĠ": 7354,
      "ling": 7355,
      "é¨": 7356,
      "ĩà¤¨": 7357,
      "ãģ«åħ¥": 7358,
      "Ġdeg": 7359,
      "ĠØ§ÙĦØ¶": 7360,
      "å¾½": 7361,
      "æ°£": 7362,
      "ĠÐ½Ð°ÑħÐ¾Ð´Ð¸": 7363,
      "vier": 7364,
      "æĢ¥": 7365,
      "ĠØ§ÙĦØ£Ø³": 7366,
      "Ġà¤µà¤¿à¤¶à¥įà¤µ": 7367,
      "ìĪĺìĿĺ": 7368,
      "æ¯Ľ": 7369,
      "ĠìłķìĿĺ": 7370,
      "ĠØ¯ÙĤØ§Ø¦ÙĤ": 7371,
      "ÑģÐºÐ¸Ð¼": 7372,
      "æ°´éĿ¢": 7373,
      "enneĠ": 7374,
      "é¢ĳ": 7375,
      ",ĠmaisĠ": 7376,
      "å¡ļ": 7377,
      "íĶ¼íĬ¸": 7378,
      "ĠcapĠcom.Ġ": 7379,
      "à¥ĢĠà¤¤à¤°à¤¹": 7380,
      "laĠcapsuleĠ": 7381,
      "ê³µëª¨íķ¨": 7382,
      "1-": 7383,
      "cla": 7384,
      "nam": 7385,
      "ÐµÑĢÐ¸": 7386,
      ".ĠÙĦØ§": 7387,
      "ÐºÑĢÐ°": 7388,
      "auĠ": 7389,
      "ÑĩÑĥ": 7390,
      "å¹´ï¼Ī": 7391,
      "agric": 7392,
      "ÑĤÐµÐ¼": 7393,
      "à¤°à¥įà¤¶à¤¨": 7394,
      "antsĠ": 7395,
      "é¡º": 7396,
      "exp": 7397,
      "ëª©": 7398,
      "Ġà¤ķà¤°à¤¨à¥ĩĠà¤": 7399,
      "Ġìłķì¹ĺ": 7400,
      "ÑĢÐ¾Ð²Ð°Ð½": 7401,
      "Ġà¤¸à¤Ĥà¤¸à¥įà¤ķà¥ĥà¤¤": 7402,
      "ĠÑįÑĤÐ¸": 7403,
      "Ø¦Ø©": 7404,
      "interr": 7405,
      "åıĮåŃĲ": 7406,
      "ÙģØºØ§ÙĨ": 7407,
      "Ð²Ð¾Ð»Ñİ": 7408,
      "02": 7409,
      "hubschrauberĠ": 7410,
      "spr": 7411,
      "Ø¯Ø§Ø±": 7412,
      "åĽ¢": 7413,
      "ê°Ĳ": 7414,
      "ichĠs": 7415,
      "è¿ľ": 7416,
      "ãĥĪãĥŃ": 7417,
      "Ð¶Ð±Ð°": 7418,
      "2012": 7419,
      "ĠwasĠ": 7420,
      "éĽ£": 7421,
      "è¯»": 7422,
      "Ġà¤ªà¥įà¤°à¤¦à¥ĩà¤¶": 7423,
      "ãģĪãĢģ": 7424,
      "ĠìĤ¬ê±´": 7425,
      "è½½": 7426,
      "ĠÑģÐ¾ÑĨÐ¸": 7427,
      "å°±æĺ¯": 7428,
      "troisĠ": 7429,
      "èĪ±åĨħ": 7430,
      "Ġà¤°à¥Ĥà¤ªĠà¤¸à¥ĩĠà¤": 7431,
      "0Â°": 7432,
      "Ð¸Ð¼": 7433,
      "Ø¯Ø§Ùħ": 7434,
      "Ġê´ĳ": 7435,
      "ÙĤÙĤ": 7436,
      "ëĬĺ": 7437,
      "à¤¾Ġà¤¨à¤¹à¥Ģà¤Ĥ": 7438,
      "ìľ¨": 7439,
      "lioĠ": 7440,
      "åĩ»": 7441,
      "æĹ¥ãĢģ": 7442,
      "ordin": 7443,
      "é«ĺéĢŁ": 7444,
      "you'": 7445,
      "ãĤīãĤĮãĤĭãĢĤ": 7446,
      "ê·¹": 7447,
      "wirĠsindĠ": 7448,
      "´íĵ¨íĦ°": 7449,
      "8æľĪ": 7450,
      "¤à¤ķ": 7451,
      "Ġl'": 7452,
      "ä¸¡": 7453,
      "ØªØ¯": 7454,
      "Ø¯ÙĪÙĨ": 7455,
      "çļĦæĺ¯": 7456,
      "ĠdeĠs": 7457,
      "å®¤": 7458,
      "ĠÐ¸Ñħ": 7459,
      "å¾ģ": 7460,
      "Ã¨neĠ": 7461,
      "ĠØªØ³": 7462,
      "ull": 7463,
      "Ġà¤ľà¤¾à¤¨": 7464,
      "Ġê°Ģìŀ¥": 7465,
      "çĪĨ": 7466,
      "æĬ¥åĳĬ": 7467,
      "íĿ¬": 7468,
      "Ġë¸Į": 7469,
      "ãĥĳãĥ¼ãĤ»ãĥ³ãĥĪ": 7470,
      "aristot": 7471,
      "cour": 7472,
      "goĠ": 7473,
      "weĠh": 7474,
      "Ġein": 7475,
      ",ĠetĠ": 7476,
      "à¤°Ġà¤®à¥ĩà¤Ĥ": 7477,
      "ĠÐ¿Ð¸": 7478,
      "ĠÙĪØ¹": 7479,
      "ĠØ¨ÙĪØ¶": 7480,
      "å¤§éĩı": 7481,
      "ãĤ¢ãĥĭ": 7482,
      "ĠÙĥÙĪÙħ": 7483,
      "ä¾µ": 7484,
      "æľĢåĪĿ": 7485,
      "ident": 7486,
      "ãĤŃãĥ£ãĥĥãĥĹ": 7487,
      "unĠpeu": 7488,
      "dent": 7489,
      "ç£": 7490,
      "à¥ĩĠ": 7491,
      "anĠs": 7492,
      "ariĠ": 7493,
      "ÐºÑĢÑĭ": 7494,
      "Ø¨Ø·": 7495,
      "Ð²Ð»Ñı": 7496,
      "ĠÐ¿Ð¾Ð·": 7497,
      "ØŃÙĪ": 7498,
      "laĠsu": 7499,
      "æĹ§": 7500,
      "à¥ĢĠà¤²": 7501,
      "ë¦¬ë¥¼": 7502,
      "Ġ2000": 7503,
      "2018": 7504,
      "ëĿ¼ìĿ´": 7505,
      "çĲĨè®º": 7506,
      "attiv": 7507,
      "ĠØ¯ÙħØ´": 7508,
      "Ġíĺ¸": 7509,
      "ì¢ĭ": 7510,
      "åł±åĳĬ": 7511,
      "à¤ķà¥įà¤¤à¤¿": 7512,
      "é½Ĳ": 7513,
      "ãĤ¢ãĥĿãĥŃ": 7514,
      "ĠØ¯ÙħØ´ÙĤ": 7515,
      "-à¤¸": 7516,
      "59": 7517,
      "Ð°ÑĢ": 7518,
      "à¥Ģ,Ġà¤": 7519,
      "Ġdec": 7520,
      "Ø¬ÙĬÙĨ": 7521,
      "ofĠh": 7522,
      "ãĤĤãģĨ": 7523,
      "ĠÐ±Ð¾Ð»ÐµÐµ": 7524,
      "Ø§Ø±Ø¬": 7525,
      "forteĠ": 7526,
      "åĲĮæĻĤ": 7527,
      "ä»ĸãģ®": 7528,
      "åĮĹäº¬": 7529,
      "upÃ©r": 7530,
      "whatĠ": 7531,
      "quiĠÃ¨": 7532,
      "Ð²ÐµÐ´": 7533,
      "ĠØºÙĬØ±": 7534,
      "åĮ»åŃ¦": 7535,
      "Ġà¤ķà¤¿à¤¯à¤¾Ġà¤ľ": 7536,
      "fun": 7537,
      "hel": 7538,
      "ì³": 7539,
      "indu": 7540,
      "ÙĨÙĪ": 7541,
      "ÙĪÙģÙĬ": 7542,
      "ä»ħ": 7543,
      "ĠdemĠ": 7544,
      "ĠÐ²ĠÐºÐ°": 7545,
      "ÑĤÐµÐ»Ð¸": 7546,
      "ãĤ¢ãĤ¯": 7547,
      "Ġë°±": 7548,
      "Ø§ÙħØ¬": 7549,
      "ØµÙģ": 7550,
      "uls": 7551,
      "raf": 7552,
      "peri": 7553,
      "ãģĪãģ¦": 7554,
      "æĦĽ": 7555,
      "Ġìłľìĸ´": 7556,
      "Ġcont": 7557,
      "ĠÐ¿ÐµÑĢÐµÐ´Ð°": 7558,
      "ĠÐ¿ÑĢÑı": 7559,
      "immerĠ": 7560,
      "à¥ģà¤¦à¥įà¤§": 7561,
      "ichĠhÃ¶reĠ": 7562,
      "íı´ë¡ľ": 7563,
      "dat": 7564,
      "īà¤¨": 7565,
      "Ø©ĠÙĪØ§ÙĦ": 7566,
      "ëĬĶĠìĿ´": 7567,
      "ãģ¨ãģ¯": 7568,
      "åĽº": 7569,
      "ÑĢÐ°Ð±": 7570,
      "acci": 7571,
      "Ø§ÙĨØ¨": 7572,
      "Ġà¤ªà¥įà¤°à¤µ": 7573,
      "ÙĬØ±Ø§ÙĨ": 7574,
      "ç©į": 7575,
      "à¤¿à¤¨à¥Ģ": 7576,
      "rementĠ": 7577,
      "èĹı": 7578,
      "ightĠ": 7579,
      "ç¡®è®¤": 7580,
      "à¤¾à¤¤à¥įà¤®à¤ķ": 7581,
      "ãĤ³ãĥ³ãĥĶãĥ¥ãĥ¼ãĤ¿": 7582,
      "à¥ģà¤·à¥įà¤Łà¤¿": 7583,
      "cre": 7584,
      "sembr": 7585,
      "iĠal": 7586,
      "tron": 7587,
      "åĬ¿": 7588,
      "è¯ģ": 7589,
      "æµ·åįĹ": 7590,
      "ãģĭãĤīãģ®": 7591,
      "spec": 7592,
      "Ġêµ°": 7593,
      "ç¥ĸ": 7594,
      "indow": 7595,
      "flor": 7596,
      "à¥ĭà¤²à¥ĭ": 7597,
      "ãĤ¸ãĤ§ãĥŁãĥĭ": 7598,
      ",ĠÐºÐ¾ÑĤÐ¾ÑĢÑĭÐµ": 7599,
      "ãĤĩãģĨ": 7600,
      "tousĠ": 7601,
      "insĠ": 7602,
      "à¥įà¤¹": 7603,
      "ØªÙĩØ§": 7604,
      "à¥ĢĠà¤®": 7605,
      "ãģ®ä¸Ń": 7606,
      "atz": 7607,
      "thĠ": 7608,
      "ÑģÑĤÑĢÐ°": 7609,
      "ĠÐ¸ĠÑģ": 7610,
      "agg": 7611,
      "åĽ½éĻħ": 7612,
      "ÑĢÐ¸ÑĤÐ¾": 7613,
      "æĿ¾": 7614,
      "ÑĨÑĭ": 7615,
      "ä»¥ä¸ĭ": 7616,
      "æĮ¥": 7617,
      "Ã¶g": 7618,
      "ãĥŀãĥ³": 7619,
      "ìľĦìĽĲ": 7620,
      "ĠÑĩÐµÑĢÐµÐ·": 7621,
      "å§¿åĭ¢": 7622,
      "ãĤ¹ãĥĿãĥ¼ãĥĦ": 7623,
      "/2": 7624,
      "log": 7625,
      "tm": 7626,
      "ãģ¥": 7627,
      "orizz": 7628,
      "ilĠf": 7629,
      "ĠÐºÐ¾ÑģÐ¼Ð¸ÑĩÐµ": 7630,
      "äººå·¥": 7631,
      "å·±": 7632,
      "Ġìķķ": 7633,
      "forĠtheĠ": 7634,
      "èªŀè¨Ģ": 7635,
      "à¤¿à¤¤à¥įà¤°": 7636,
      "obj": 7637,
      "å·ŀãĢģ": 7638,
      "withĠtheĠ": 7639,
      "Ġìļ°ì£¼ìĦł": 7640,
      "åĳ¼ãģ°ãĤĮ": 7641,
      "untĠclub": 7642,
      "à¥Īà¤¯à¤¾à¤°": 7643,
      "s'": 7644,
      "¸¡": 7645,
      "Ø©Ġ": 7646,
      "quar": 7647,
      "leĠt": 7648,
      "ash": 7649,
      "æŃ´": 7650,
      "ãĤ¤ãĤ¯": 7651,
      "çĽĬ": 7652,
      "à¤°à¥įà¤Ĺ": 7653,
      "à¤¾à¤Ĥà¤ļ": 7654,
      "æ°´ä¸Ń": 7655,
      "éĿ¢ç§¯": 7656,
      "ì½¤": 7657,
      "æ··": 7658,
      "ĠÑģÐ¸ÑģÑĤÐµÐ¼": 7659,
      "Ã©lÃ©": 7660,
      "ãģ«ãģĬãģĳãĤĭ": 7661,
      "environ": 7662,
      "æŃ·åı²": 7663,
      "sou": 7664,
      "arri": 7665,
      "illi": 7666,
      "ĠÙĪØ§ØŃØ¯": 7667,
      "å°ģ": 7668,
      "æ°¸": 7669,
      "conn": 7670,
      "ossi": 7671,
      "è¦§": 7672,
      "åĩı": 7673,
      "çº³": 7674,
      "Ġê²ĥìĿĦ": 7675,
      "ç¶²": 7676,
      "à¥ĥà¤¥": 7677,
      "åıĳå°Ħ": 7678,
      "åıĸå¾Ĺ": 7679,
      "ÙħØ±ØŃØ¨ÙĭØ§": 7680,
      "ĠØ¥ÙĨÙĩØ§": 7681,
      "Ġà¤§à¤°à¥įà¤®": 7682,
      "ilĠtuoĠ": 7683,
      "Ø¬ÙĦØ³": 7684,
      "%ï¼Į": 7685,
      "4ëħĦ": 7686,
      "dov": 7687,
      "alli": 7688,
      "ĠÙħÙĤ": 7689,
      "ìĿ´ëĿ¼ê³ł": 7690,
      "trag": 7691,
      "verw": 7692,
      "ãĤ¹ãĥ»": 7693,
      "íķľëĭ¤.Ġ": 7694,
      "å¤§éĻ¸": 7695,
      "à¤£à¥įà¤¡": 7696,
      "Ġê°ĢìĪĺ": 7697,
      "amentoĠ": 7698,
      "èĬĤ": 7699,
      "éºĹ": 7700,
      "Ġë©Ķ": 7701,
      "Ġà¤ķà¥ĩĠà¤ħà¤¨à¥ģà¤¸": 7702,
      "ÙĦÙħØ§ÙĨÙĬØ§": 7703,
      "ĠÐ²ĠÐ¿Ð¾ÑĢÑıÐ´ÐºÐµ": 7704,
      "vit": 7705,
      "¡íĦ°": 7706,
      "ìĶ": 7707,
      "stabil": 7708,
      "ØĮĠ": 7709,
      "ãĥªãĥ¼ãĥ": 7710,
      "ãĥĥãĥĳ": 7711,
      "ãĥ³ãĥĢ": 7712,
      "ingsĠ": 7713,
      "à¤§à¤¾à¤¨": 7714,
      "ĠØ±Ø¤": 7715,
      "çĶ±äºİ": 7716,
      "commentĠ": 7717,
      "çĪ¶": 7718,
      "à¤¸à¤®à¤ĿĠà¤Ĺà¤¯à¤¾à¥¤": 7719,
      "ç®¡çĲĨ": 7720,
      "ë¯¼ì£¼ì£¼ìĿĺìĿ¸ë¯¼": 7721,
      "hatĠ": 7722,
      "å©": 7723,
      "ĠÑĩÐ¸": 7724,
      "anal": 7725,
      "Ġà¤ķà¤¾Ġà¤¸": 7726,
      "aum": 7727,
      "ìĹĲĠìĿ´": 7728,
      "ĠìĿ½": 7729,
      "ìķĻ": 7730,
      "2013": 7731,
      "ëĤĺëĬĶ": 7732,
      "ëĲĺê³łĠìŀĪ": 7733,
      "laĠpression": 7734,
      "faitĠ": 7735,
      "Ð¿Ð°Ð´": 7736,
      "æŁĲ": 7737,
      "ĠÐ²Ð¾Ð¹Ð½Ñĭ": 7738,
      "2+": 7739,
      "4æľĪ": 7740,
      "loc": 7741,
      "pet": 7742,
      "ÙĢ": 7743,
      "ine": 7744,
      "å¾©": 7745,
      "uss": 7746,
      "ãĤ·ãĤ¹ãĥĨ": 7747,
      "ĠØ¬Ø§ÙĩØ²": 7748,
      "èĥ¶": 7749,
      "ëŀĳ": 7750,
      "éĢ²è¡Į": 7751,
      "inĠordnung.Ġ": 7752,
      "ãĤĴåıĹãģĳ": 7753,
      "ìĹ¬ê¸°ëĬĶ": 7754,
      "ĠÐ¿Ð°ÑĢÐ°ÑĪÑİÑĤ": 7755,
      "åıĮåŃĲåº§": 7756,
      "ciĠ": 7757,
      "weg": 7758,
      "Ġà¤ĵ": 7759,
      "stor": 7760,
      "attoĠ": 7761,
      "Ã©qu": 7762,
      "åľĴ": 7763,
      "ãģŁãģ¨": 7764,
      "à¤¾Ġà¤Ĺà¤¯": 7765,
      "rightĠ": 7766,
      "èªĮ": 7767,
      "è¦ª": 7768,
      "ç»ĩ": 7769,
      "2019": 7770,
      "åľĭæ°ĳ": 7771,
      "æĮĻ": 7772,
      "èĥĮ": 7773,
      "ãĥ³ãĥĨ": 7774,
      "11æľĪ": 7775,
      "Ġà¤¹à¤®à¥ĩà¤Ĥ": 7776,
      "ä¿ĿèŃ·": 7777,
      "1970": 7778,
      "kle": 7779,
      "wahr": 7780,
      "±Ħ": 7781,
      "ÑĤÑĢÐ¾": 7782,
      "Ø±Ø³": 7783,
      "ï¼Įä¾ĭå¦Ĥ": 7784,
      "à¥ģà¤Ĺ": 7785,
      "æĪı": 7786,
      "righ": 7787,
      "éģķ": 7788,
      "eĠparĠ": 7789,
      "2016": 7790,
      "Ġà¤ªà¥įà¤°à¤¸": 7791,
      "eggi": 7792,
      "æĸĩåŃ¸": 7793,
      "å¾ĮãĢģ": 7794,
      "æķ°æį®": 7795,
      "Â»,Ġ": 7796,
      "Ġà¥¨": 7797,
      "Ġà¤«à¥Ģà¤Ł": 7798,
      "Ð»ÑĭÑĪÑĥ": 7799,
      "æ¿Ģ": 7800,
      "ç¯Ħ": 7801,
      "ĠÐ²Ð¾Ð¹ÑģÐºÐ°": 7802,
      "Ġà¤¸à¤¬Ġà¤ķà¥ģà¤Ľ": 7803,
      "Ġíģ°": 7804,
      "entendsĠ": 7805,
      "iÃŁ": 7806,
      "pond": 7807,
      "Ġi": 7808,
      "Ġà¤ĳ": 7809,
      "Ø©ĠØª": 7810,
      "ÐºÐ¾Ð¹": 7811,
      "ichĠg": 7812,
      "ÑĢÐ°Ð»ÑĮ": 7813,
      "ĠÐºÐ¾Ð»": 7814,
      "à¥ĩà¤Ĥà¤¦": 7815,
      "ãĤīãģı": 7816,
      "segn": 7817,
      "ä¹Ĺ": 7818,
      "ç§ĭ": 7819,
      "Ġwur": 7820,
      "æĪĲåĬŁ": 7821,
      "ìĦ±ìĿ´": 7822,
      "å¾Įãģ«": 7823,
      "ĠÙĦÙĦÙħ": 7824,
      "ãĢıãģ®": 7825,
      "ĠìĿ¼ë¶Ģ": 7826,
      "ç¾İåĽ½": 7827,
      "ilĠpar": 7828,
      "ÐºÐ»ÑİÑĩÐ¸": 7829,
      "Ø¨ÙĨØ§ÙĨ": 7830,
      "Ġà¤ªà¥Ĥà¤°à¥įà¤µ": 7831,
      "à¤¿à¤¯à¤Ĥà¤¤à¥įà¤°à¤£": 7832,
      ",ĠÐ¿ÑĢÐ¸": 7833,
      "john": 7834,
      "know": 7835,
      "aĠnel": 7836,
      "ataĠd": 7837,
      "Ø¹ÙĬØ¯": 7838,
      "utsch": 7839,
      "è¡Ŀ": 7840,
      "suchĠ": 7841,
      "Ø¬ÙĨ": 7842,
      "åĨµ": 7843,
      "åĪĨåŃĲ": 7844,
      "ìĭľê°Ħ": 7845,
      "Ġëªĩ": 7846,
      "ĠìķĦëŀĺ": 7847,
      "Ø±ÙĥØ¨Ø©ĠØ§ÙĦ": 7848,
      ",Ġà¤ľà¤¿à¤¸": 7849,
      "ĠØ§ÙĦÙĥØ¨Ø³ÙĪÙĦØ©": 7850,
      "ĠØ«ÙĦØ§Ø«": 7851,
      "Ð¿Ð¾Ð»Ð»Ð¾Ð½": 7852,
      "Ġà¤°à¤¾à¤ľà¥įà¤¯": 7853,
      "Ø¢ÙĨ": 7854,
      "ç§ģãģŁãģ¡ãģ¯": 7855,
      "ĠfuÃŁ": 7856,
      "ëĮĢíķľë¯¼êµŃ": 7857,
      "ãĤªãĥ¼ãĤ¹ãĥĪ": 7858,
      "Ø¨ÙĪÙĦÙĪ": 7859,
      "yur": 7860,
      "Ġan": 7861,
      "ï¼ĮéĢĻ": 7862,
      "à¤Ĥà¤ª": 7863,
      "æĿŁ": 7864,
      "æİ¡": 7865,
      "Ġà¤¬à¤Ĥà¤¦": 7866,
      "Ġà¤ªà¥įà¤°à¤®à¥ģà¤ĸ": 7867,
      "æĪĲçĤº": 7868,
      "ëħĦëĮĢ": 7869,
      "çºĮ": 7870,
      "à¤Ńà¤¾à¤µ": 7871,
      "aussiĠ": 7872,
      "à¤¿à¤¶à¤¤": 7873,
      "good": 7874,
      "æĮĩæĮ¥": 7875,
      "è°·": 7876,
      "ĠØ§ÙĦÙĤØ±ÙĨ": 7877,
      "ìļ´ëıĻ": 7878,
      "itÃłĠdiĠ": 7879,
      "à¤¶à¥įà¤ļà¤¿à¤®": 7880,
      "-1": 7881,
      "de,Ġ": 7882,
      "Ġ%": 7883,
      "à¥ĢĠà¤ª": 7884,
      "ëĭ¤ë©´": 7885,
      "à¤®à¥įà¤ª": 7886,
      "sep": 7887,
      "Ġà¤°à¤¹à¥Ģ": 7888,
      "egn": 7889,
      "ĠØ¥ÙĦÙīĠØ§ÙĦÙħ": 7890,
      "è´µ": 7891,
      "recev": 7892,
      "guard": 7893,
      "public": 7894,
      "goodĠ": 7895,
      "èıľ": 7896,
      "èĳĹä½ľçī©": 7897,
      "ĠìłĢëĬĶ": 7898,
      "ĠÑģÐ¾Ð±Ð¸ÑĢÐ°": 7899,
      "onction": 7900,
      "ĠÐ´ÑĥÐ¼Ð°Ñİ": 7901,
      "aÃ®": 7902,
      "alcun": 7903,
      "Ġì¡´ìŀ¬": 7904,
      "ãĤ·ãĤ¹ãĥĨãĥł": 7905,
      "à¤ī": 7906,
      "oni": 7907,
      "ãĢĤæŃ¤": 7908,
      "sieĠs": 7909,
      "ãĤ¤ãĥĦ": 7910,
      "Ø§ØªĠØ§ÙĦÙħ": 7911,
      "è§ģ": 7912,
      "2021": 7913,
      "fortĠ": 7914,
      "ìĬ¤íħ": 7915,
      "æĬ¤": 7916,
      "ë¶ĦìĿ´": 7917,
      "freedom": 7918,
      "Ġì§ĳíķ©": 7919,
      "low": 7920,
      "º¼": 7921,
      "Ġ/": 7922,
      "ãĢī": 7923,
      "Ð°Ð»Ð¸": 7924,
      "ï¼Įå¦Ĥ": 7925,
      "alĠm": 7926,
      "ĠÙĪØ¨": 7927,
      "ë¥¼Ġë°Ľ": 7928,
      "åĪĨå¸ĥ": 7929,
      "Ġà¤¦à¤¿à¤ĸ": 7930,
      "ĠÐ°Ð²Ð¸": 7931,
      "à¤¾à¤¯à¤¦": 7932,
      "à¥ĥà¤·à¥įà¤Ł": 7933,
      "appleĠ": 7934,
      "çī¹ãģ«": 7935,
      "Ġ60": 7936,
      "questoĠm": 7937,
      "timeĠ": 7938,
      "ãĥ¨ãĥ¼ãĥŃ": 7939,
      "å¤ļãģıãģ®": 7940,
      "ì²ĺëŁ¼": 7941,
      "à¥ĩà¤®à¤¿à¤¨à¥Ģ": 7942,
      "Ð¶Ð±Ð°ĠÑģÐµÐ¼ÑĮ": 7943,
      "d-": 7944,
      "mostĠ": 7945,
      "nur": 7946,
      "tv": 7947,
      "ì±ħ": 7948,
      "Ġ00": 7949,
      "ãĢĪ": 7950,
      "inesĠ": 7951,
      "Ġà¤ķà¤¿à¤¸": 7952,
      "à¥Ģà¤ľ": 7953,
      "à¥ĩĠà¤µ": 7954,
      "å®Ī": 7955,
      "laĠb": 7956,
      "éĢī": 7957,
      "gĠgesetz": 7958,
      "Ð¶Ð´Ð°": 7959,
      "ä»¥éĻį": 7960,
      "ustĠ": 7961,
      "Ð½Ð°Ð²": 7962,
      "åłĤ": 7963,
      "ìĿĺĠìĨ": 7964,
      "ë¯¸ëĭĪ": 7965,
      "à¤¿à¤¦à¥įà¤§": 7966,
      "ĠìĥĿê°ģ": 7967,
      "ãĤĮãģ°ãĢģ": 7968,
      "Ð¼Ð¿ÐµÑĢÐ°ÑĤÑĥ": 7969,
      "ãĥ¨ãĥ¼ãĥŃãĥĥãĥĳ": 7970,
      "5,Ġ": 7971,
      "aer": 7972,
      "enschaf": 7973,
      "ĠëĴ¤": 7974,
      "oĠcheĠ": 7975,
      "åľĸ": 7976,
      "ĠÙħÙĪ": 7977,
      "ioneĠ": 7978,
      "ãĤĴéĢļ": 7979,
      "åĽ´": 7980,
      "è¿İ": 7981,
      "ÙĬØ©ĠÙĦ": 7982,
      "ì§ĢëĬĶ": 7983,
      "Ã¤l": 7984,
      "ĠÐ³ÐµÑĢÐ¼": 7985,
      "ĠØ§ÙĦØ£Ø±Ø¶": 7986,
      "åħ¬åı¸": 7987,
      "uck": 7988,
      "Ø±ÙĥØ©": 7989,
      "èī¯ãģĦ": 7990,
      "ĠÐ´Ð°Ð²": 7991,
      "Ġpied": 7992,
      "ãģļãĢģ": 7993,
      "ìĪľ": 7994,
      "ì¸¡": 7995,
      "à¥ĢĠà¤Ĩà¤µà¤¾à¤ľà¤¼": 7996,
      "ĠíħĮ": 7997,
      "dern": 7998,
      "gm": 7999,
      "ober": 8000,
      "Ġà¤Ĭ": 8001,
      "standĠ": 8002,
      "à¥Ģà¤¬": 8003,
      "ØŃÙĦØ©": 8004,
      "ĠsurĠ": 8005,
      "à¥ģà¤µ": 8006,
      "äººç±»": 8007,
      "å¼±": 8008,
      "Ð¾Ð³Ð»Ð°": 8009,
      "ĠØ¬Ø²": 8010,
      "èĥŀ": 8011,
      "Ġì§Ģêµ¬": 8012,
      "æĭħ": 8013,
      "ãĢĭï¼Į": 8014,
      "Ø§ÙĤØªØµ": 8015,
      "èĲ¬": 8016,
      "ĠìºĲ": 8017,
      "normal": 8018,
      "ì»¤": 8019,
      "ĠØ¨ÙĪØ¶ÙĪØŃ": 8020,
      "Ã»": 8021,
      "alter": 8022,
      "Ġà¤¸à¤¹": 8023,
      "ãĥ¼ãĤº": 8024,
      "ìĿ´ĠëĲĺ": 8025,
      "ä¸Ģæĸ¹": 8026,
      "secon": 8027,
      "ë¦¬ê°Ģ": 8028,
      "Ø·ÙĦ": 8029,
      "ãĥªãĥ³ãĤ°": 8030,
      "ëıĦë¥¼": 8031,
      "Ð½Ð¸Ðµ": 8032,
      "æ¨Ĥ": 8033,
      "Ġà¤¤à¥ĭ": 8034,
      "ãģĮãģĤãĤĭ": 8035,
      "ãģĵãģ¡ãĤīãģ®": 8036,
      "ç¨ĭåº¦": 8037,
      "ĠíĸĪ": 8038,
      "çµĲæŀľ": 8039,
      "à¤¿à¤¦à¥įà¤¯": 8040,
      "Ø¹Ø±Ùģ": 8041,
      "toujour": 8042,
      "ãĥĴãĥ¥ãĥ¼ãĤ¹ãĥĪãĥ³ãĢĤ": 8043,
      "åĲĹï¼Ł": 8044,
      "Ġë¯¼ì£¼": 8045,
      "libertyĠbellĠ7,Ġ": 8046,
      "ĠÑĥÐ¿ÑĢÐ°Ð²Ð»ÐµÐ½Ð¸Ñı": 8047,
      "ĠÑĤÐµÑĢÑĢÐ¸ÑĤÐ¾": 8048,
      ".ĠÐºÐ°Ðº": 8049,
      "teur": 8050,
      "ãĢĤèĢĮ": 8051,
      "reiĠ": 8052,
      "es-": 8053,
      "ë¡ľĠìĿ´": 8054,
      "ãĤ¹ãĥļ": 8055,
      "suĠ": 8056,
      "190": 8057,
      "åĽ½åĨħ": 8058,
      "lieg": 8059,
      "ëıĦëĬĶ": 8060,
      "ãģķãĤī": 8061,
      "2022": 8062,
      "Ġà¤ľà¤²": 8063,
      "ìĦ±ìĿĦ": 8064,
      "ĠìĿ¼ë°ĺ": 8065,
      "ĠÑįÑĤÐ¾Ð¼": 8066,
      "íķ©ëĭĪëĭ¤.": 8067,
      "åħĥåīį": 8068,
      "ëĦĲ": 8069,
      "Ø§Ø·ÙĤ": 8070,
      "Ã´t": 8071,
      "isbnĠ978-": 8072,
      "ìĬ¤íħľ": 8073,
      ",Ġìļ°ë¦¬ëĬĶ": 8074,
      "-à¤ª": 8075,
      "6ëħĦ": 8076,
      "edeĠ": 8077,
      "enenĠ": 8078,
      "angĠ": 8079,
      "anyĠ": 8080,
      "à¤Ĥà¤ķ": 8081,
      "à¥ĭà¤°à¥įà¤Ł": 8082,
      "ital": 8083,
      "ĠÐ¿Ñĥ": 8084,
      "eĠdeiĠ": 8085,
      "ãĥ³ãĤ¯": 8086,
      "ĠÙĤÙĦÙĬ": 8087,
      "èĩªå·±": 8088,
      "ĠØ§ÙĦØ¹Ø§Ùħ": 8089,
      "attend": 8090,
      "à¤¾à¤Ĥà¤Ĺ": 8091,
      "Ġà¤ķà¤¾Ġà¤¨": 8092,
      "Ġ08": 8093,
      "èĳĹåĲį": 8094,
      "Ġë°ľíĳľ": 8095,
      "ĠÐ²ÐµÑĢÑĤÐ¾Ð»": 8096,
      "ĠÑģÐ»ÑĭÑĪÐ¸": 8097,
      "ĠØ¯Ø±Ø¬Ø©": 8098,
      "åĲ¬å¾Ĺå¾Ī": 8099,
      "gar": 8100,
      "them": 8101,
      "Ġsol": 8102,
      "à¥ĢĠà¤Ĺ": 8103,
      "fort": 8104,
      "Ġ195": 8105,
      "æ¸¡": 8106,
      "ĩà¤¸à¤ķ": 8107,
      "ÙħØ§ĠØª": 8108,
      "Ø±ÙĬØ·": 8109,
      "ĠíĨµìĭł": 8110,
      "i'll": 8111,
      "Ã©galementĠ": 8112,
      "Ø¨Ø¯ÙĪĠØ£ÙĨ": 8113,
      "aÃ¯": 8114,
      "ÙģØºØ§ÙĨØ³ØªØ§ÙĨ": 8115,
      ";Ġn": 8116,
      "sq": 8117,
      "uv": 8118,
      "ç°": 8119,
      "oĠperĠ": 8120,
      "oudĠ": 8121,
      "ÙĥÙĪ": 8122,
      "itÃ©Ġ": 8123,
      "à¥ģà¤ª": 8124,
      "Ġpour": 8125,
      "verordnung": 8126,
      "sum": 8127,
      "ĠÐ´Ð¸": 8128,
      "åĨ³": 8129,
      "ç«¶": 8130,
      "é¡¹": 8131,
      "éłħ": 8132,
      "ĠÐ¾Ð±ÑĢÐ°Ð·": 8133,
      "Ġinter": 8134,
      "à¤¿à¤¶à¥ĩà¤·": 8135,
      "è¼¸": 8136,
      "à¤¾à¤ĩà¤Ł": 8137,
      "à¤łà¥Ģà¤ķĠà¤¹à¥Ī,": 8138,
      "ĠØ§ÙĦØªÙĬĠØª": 8139,
      "mark": 8140,
      "æĺ¾ç¤º": 8141,
      "groÃŁ": 8142,
      "ãĤŃãĥ£ãĥĥãĥĹãĤ³ãĥł": 8143,
      "punk": 8144,
      "vou": 8145,
      "Ġcar": 8146,
      "icheĠ": 8147,
      "ĠperĠ": 8148,
      "Ð·Ð¾Ð½": 8149,
      "ÑĢÐ¸Ñı": 8150,
      "ÑĨÑĥ": 8151,
      "Ġge": 8152,
      "æ³ģ": 8153,
      "ëĲł": 8154,
      "çĶŁäº§": 8155,
      "ĠìĤ¬ìĭ¤": 8156,
      "fÃ¼rĠdieĠ": 8157,
      "ungsgesetz": 8158,
      "èĭ±éĩĮ": 8159,
      "à¤łà¥Ģà¤ķĠà¤¹à¥Ī,Ġà¤": 8160,
      "éĺ¿æ³¢": 8161,
      "çĥŃ": 8162,
      "bestÃ¤tig": 8163,
      "8.Ġ": 8164,
      "tiĠsentoĠ": 8165,
      "íĪ¬": 8166,
      "prÃ¤": 8167,
      "Ġcl": 8168,
      "ĠÐ¾ÑģÑĤÐ°": 8169,
      "Ð·Ð½Ð°": 8170,
      "abineĠ": 8171,
      "à¤¾à¤°à¥įà¤": 8172,
      "ãģĤãģĤãĢģ": 8173,
      "ì§ĢĠëª»": 8174,
      "éģ©": 8175,
      "æ°ĳä¸»": 8176,
      "åĮĸåŃ¦": 8177,
      "ãĥĳãĥ©ãĤ·ãĥ¥ãĥ¼ãĥĪ": 8178,
      "ischerĠ": 8179,
      "à¤¤à¥ĩĠà¤¹à¥Īà¤ĤĠà¤ķà¤¿": 8180,
      "ØĮĠÙĩÙĦ": 8181,
      ",Ġà¤¹à¥įà¤¯à¥Ĥà¤¸à¥įà¤Łà¤¨": 8182,
      "Ġìĸ´ëĸ»": 8183,
      "Ġdurch": 8184,
      "ÙĬÙĨØ¯Ø´ÙĬØ¨ĠØ³ÙĬÙģÙĨ": 8185,
      "igĠ": 8186,
      "¿ł": 8187,
      "Ġà¤ķà¤²": 8188,
      "untoĠ": 8189,
      "ĠÐ²Ð¾Ð¿": 8190,
      "Ð´Ð¾": 8191,
      "Ð´Ð¶": 8192,
      "olar": 8193,
      "à¥ĢĠà¤¥": 8194,
      "à¥įà¤¯à¥Ĥ": 8195,
      "ä¹ħ": 8196,
      "Ġ23": 8197,
      "à¤¿à¤¤Ġà¤ķà¤°": 8198,
      "åĮĸåŃ¸": 8199,
      "ĠìķĦëĭĪ": 8200,
      "ãĥĸãĥ«": 8201,
      "ä½įäºİ": 8202,
      "whoĠ": 8203,
      "ãĤµãĤ¤": 8204,
      "æ£®": 8205,
      "ablementĠ": 8206,
      "èĪªå¤©åĻ¨": 8207,
      ".ĠÐ¸": 8208,
      "9,Ġ": 8209,
      "hum": 8210,
      "usi": 8211,
      "zus": 8212,
      "à¤ĺ": 8213,
      "ark": 8214,
      "ellaĠ": 8215,
      "elyĠ": 8216,
      "Ġà¤¸à¥ĩà¤ķ": 8217,
      "à¤Ĺà¥ĭà¤²": 8218,
      "ÑİÑģÑĮ": 8219,
      "ä¹¡": 8220,
      "à¤¬à¤¿à¤¨": 8221,
      "ãĤĵãģ«": 8222,
      "Ð¾ÐºÐ¸": 8223,
      "guerr": 8224,
      "çĦ¶èĢĮ": 8225,
      "æĮĩç¤º": 8226,
      "à¤¾Ġà¤¸à¥ĩà¤µà¤¨": 8227,
      "ìķĪëħķ": 8228,
      "Ġê´Ģëł¨": 8229,
      "ĠìĹ¬ê¸°ìĦľ": 8230,
      "ĠÑģÐµÐ²ÐµÐ½": 8231,
      "ichĠhÃ¶reĠsieĠ": 8232,
      "btĠ": 8233,
      "dic": 8234,
      "hall": 8235,
      "çĳ": 8236,
      "èĶ": 8237,
      "ãģ®ãĢĮ": 8238,
      "ãģ®ãĤĪãģĨãģ«": 8239,
      "retro": 8240,
      "Ã©m": 8241,
      "ØŃØ©": 8242,
      "dist": 8243,
      "Ð¾Ð²Ð¾Ð»ÑĮ": 8244,
      "à¤°Ġà¤¬": 8245,
      "äººé¡ŀ": 8246,
      "einig": 8247,
      "Ġhf": 8248,
      "Ġwer": 8249,
      "ĠÙĥØ§Ø¨": 8250,
      "ìĭľìķĦ": 8251,
      "asseĠ": 8252,
      "Ġà¤ľà¤¿à¤¸": 8253,
      "ing,Ġ": 8254,
      "ĠìĤ¬íļĮ": 8255,
      "Ġë¶ģ": 8256,
      "ãģĹãģ¦ãģĦãģŁ": 8257,
      "Ġë°©ìłķìĭĿ": 8258,
      "è¨ĺéĮ²": 8259,
      "rett": 8260,
      "ãĤĭãģ¨ãĢģ": 8261,
      "èĻķ": 8262,
      "å§Ķåĵ¡": 8263,
      "è¨±å¤ļ": 8264,
      "kapsel": 8265,
      "ilĠyĠaĠ": 8266,
      "wayneĠ": 8267,
      "41": 8268,
      "bc": 8269,
      "ìº": 8270,
      "Ġauf": 8271,
      "antoĠ": 8272,
      "anÃ§": 8273,
      "ï¼Įä»¥åıĬ": 8274,
      "ats": 8275,
      "Ø¯ÙĨ": 8276,
      "olt": 8277,
      "åĲ¯": 8278,
      "asp": 8279,
      "Ġme": 8280,
      "ĠØ§ÙĦÙħØªØŃØ¯": 8281,
      "Ð¶ÐµÐ½Ð¸Ðµ": 8282,
      "ä»¥å¤ĸ": 8283,
      "ãģıãĢģ": 8284,
      "Ð½Ð¸Ð¼Ð°": 8285,
      "zug": 8286,
      "é»ŀ": 8287,
      "è¡¨çı¾": 8288,
      "bene.Ġ": 8289,
      "ëŁ¬íķľ": 8290,
      "ĠÐ¿Ð¾Ð»Ð¾Ð¶": 8291,
      "ÙĬÙħÙĬÙĨÙĬ": 8292,
      "ë§ĪìĿ¼": 8293,
      "à¥ĩà¤¶à¤¨": 8294,
      "laĠport": 8295,
      "fromĠtheĠ": 8296,
      "æļĹ": 8297,
      "ĠÑĢÐ¾ÑģÑģÐ¸Ð¹": 8298,
      "Ġà¤Ńà¤¾à¤°à¤¤à¥Ģà¤¯": 8299,
      "through": 8300,
      "ĠÙĦØ¯ÙĬÙĥ": 8301,
      "automat": 8302,
      "à¤¾à¤¸à¥įà¤¤à¤µĠà¤®à¥ĩà¤Ĥ": 8303,
      "florid": 8304,
      ".ĠØŃ": 8305,
      "minut": 8306,
      "Ġì·¨": 8307,
      ".ĠÙħ": 8308,
      "ÙĨØŃÙĨ": 8309,
      "à¥Ģà¥¤Ġà¤": 8310,
      "altenĠ": 8311,
      "aro": 8312,
      "ĠÐ¿Ð¾Ð²": 8313,
      "Ð´Ð½Ð°": 8314,
      "æĺŃ": 8315,
      "ÑĨÐµÐ½ÑĤ": 8316,
      "ãĥĥãĤ°": 8317,
      "èĪŀ": 8318,
      "ä»¥æĿ¥": 8319,
      "Ø®ÙģØ¶": 8320,
      "ëĭ¤.ĠìĿ´": 8321,
      "Ġà¤°à¤ĸ": 8322,
      "ãĤ«ãĥ«": 8323,
      "ìĻĶ": 8324,
      "frank": 8325,
      "dueĠ": 8326,
      "æľĢæĹ©": 8327,
      "grad": 8328,
      "ìļ°ë¦¬ëĬĶ": 8329,
      "ĠÑĤÑĢÐµ": 8330,
      "ãĥīãĤ¤ãĥĦ": 8331,
      "à¤¾à¤ģà¤ļ": 8332,
      "tureĠ": 8333,
      "Ð¶Ð¸Ð¼": 8334,
      "æ´»åĬ¨": 8335,
      "æĥħåł±": 8336,
      "tempÃ©r": 8337,
      "embreĠ": 8338,
      "éĶĻ": 8339,
      "Ġà¤ħà¤Ńà¥ĢĠà¤Ń": 8340,
      "ĠÐ¼Ð¾Ð³Ñĥ": 8341,
      "ÐµÐ¼Ð¸Ð½Ð¸": 8342,
      "çį²å¾Ĺ": 8343,
      "],Ġ": 8344,
      "aj": 8345,
      "gend": 8346,
      "hÃ¶r": 8347,
      "larg": 8348,
      "oÃ¹": 8349,
      "oĠp": 8350,
      "alorsĠ": 8351,
      "Ø¹ÙĬØ©": 8352,
      "iccol": 8353,
      "eĠdaĠ": 8354,
      "divent": 8355,
      "à¤°Ġà¤ļ": 8356,
      "à¤¯à¥ģà¤ķà¥įà¤¤": 8357,
      "ĠÐ¼Ð¾Ð¼": 8358,
      "lear": 8359,
      "ãģĭãģ«": 8360,
      "andĠc": 8361,
      "ê¸°ìĹĲ": 8362,
      "comĠtech": 8363,
      "eĠpart": 8364,
      "æĸ¹åĲĳ": 8365,
      "ĠØ£ÙĨĠØ£": 8366,
      "ç¾ħ": 8367,
      "exc": 8368,
      "appen": 8369,
      "èĲ¥": 8370,
      "ĠíĽĦë³´": 8371,
      "ãĥ¯ãĤ¤": 8372,
      "ãģªãģıãĢģ": 8373,
      "ÑģÑĤÑĢÐ¾Ð½Ð°Ð²": 8374,
      "Ø§Ø±ØªÙģØ§Ø¹": 8375,
      "ãĤ¢ãĥĭãĥ¡": 8376,
      "éĺ¿æ³¢ç½Ĺ": 8377,
      "wayneĠko": 8378,
      ",ĠÐ¾ÑĤ": 8379,
      ",Ġìłľ": 8380,
      "-3": 8381,
      "ĠãĢİ": 8382,
      "imentĠ": 8383,
      "Ð·Ð´": 8384,
      ",Ġà¤¦": 8385,
      "avionsĠ": 8386,
      "lik": 8387,
      "us.Ġ": 8388,
      "åīįãģ«": 8389,
      "ãĥŀãĤ¤ãĥ«": 8390,
      "è½¯": 8391,
      "ĠÑĢÐµÐ²Ð¾Ð»Ñİ": 8392,
      "è²¡": 8393,
      "archit": 8394,
      "Ġà¤ķà¤°Ġà¤°à¤¹à¥ĩĠà¤¹à¥Īà¤Ĥ": 8395,
      "ĠØ³ÙĨØ©": 8396,
      "íĴį": 8397,
      "ĠìĻĦë£Į": 8398,
      "ÑıÐ±ÑĢÑı": 8399,
      "\",Ġ": 8400,
      "haw": 8401,
      "ide": 8402,
      "leĠdÃ©": 8403,
      "ãģŃ": 8404,
      "Ð¸Ð»": 8405,
      "Ġà¤ķà¤¾à¤²": 8406,
      "à¥ĩĠà¤²": 8407,
      "ÑģÑĤÐµ": 8408,
      "et.Ġ": 8409,
      "dieĠm": 8410,
      "siehtĠ": 8411,
      "Ġ27": 8412,
      "æķ£": 8413,
      "lightĠ": 8414,
      "ottoĠ": 8415,
      "æīĺ": 8416,
      "Ø§Ø±Ø§Øª": 8417,
      "åĪĨéĩİ": 8418,
      "ĠÙĬØª": 8419,
      "ĠÐ³Ð¾Ð²": 8420,
      "Ð½Ð¸ÐºÐ°": 8421,
      "ultim": 8422,
      "ãĥ³ãĥĩ": 8423,
      "ingĠs": 8424,
      "ãģĹãģ¾ãģĹãģŁ": 8425,
      "ettur": 8426,
      "ãĥĭãĤ¢": 8427,
      "ãĥĭãĥ¥": 8428,
      "à¤¾à¤¦à¤²": 8429,
      "Ġà¤°à¤¹à¤¾Ġà¤¹à¥Ī": 8430,
      "ĠìĿ¸íĦ°": 8431,
      "aĠdellaĠ": 8432,
      "Ġà¤¥à¥ĭà¤¡à¤¼": 8433,
      "Ġê´Ģê³Ħ": 8434,
      "keit": 8435,
      "ĠØ¥ÙĨÙĩ": 8436,
      "ĠìķĮëł¤": 8437,
      "11,Ġhouston.Ġ": 8438,
      "akeĠch": 8439,
      "åĶ¯ä¸Ģ": 8440,
      "ostr": 8441,
      "ØªØ§Ø¨": 8442,
      "à¤¿à¤¬": 8443,
      "enĠauf": 8444,
      "ìĿĦĠëķĮ": 8445,
      "deĠlaĠ": 8446,
      ",Ġà¤¨": 8447,
      "ÑĢÐ¸Ð¹": 8448,
      "Ġfrom": 8449,
      "ãĢįãĢĤ": 8450,
      "parl": 8451,
      "çµ¦": 8452,
      "plac": 8453,
      "ĠÐ½ÐµÐºÐ¾": 8454,
      "ì²ł": 8455,
      "ungĠvonĠ": 8456,
      "ç½²": 8457,
      "è½¦": 8458,
      "ÙĬÙħÙĨ": 8459,
      "ãģ£ãģ¦ãģĦãģ¾ãģĻãĢĤ": 8460,
      "íķ©ëĭĪëĭ¤.Ġ": 8461,
      "çĽ´æİ¥": 8462,
      "ÙĩÙĨØ§Ùĥ": 8463,
      "ĠÐ±Ð¾Ð»ÑĮÑĪÐµ": 8464,
      "ãģĭãģªãĤĬ": 8465,
      "5.5": 8466,
      "inĠp": 8467,
      "arioĠ": 8468,
      "ellesĠ": 8469,
      "element": 8470,
      "ãģ«æĪ»": 8471,
      "ãģĦãģĦ": 8472,
      "ìĿ´ìĹĪ": 8473,
      "å°Ī": 8474,
      "à¤°Ġà¤¦": 8475,
      "ï¼Ī200": 8476,
      "ĠìĿ´íķ´": 8477,
      "ĠÙħÙĨĠÙħ": 8478,
      "Ġë°Ŀ": 8479,
      "éĻµ": 8480,
      "ĠÐ°Ð½": 8481,
      "ëŁ½": 8482,
      "ÙĦØ§ØŃ": 8483,
      "èĭ¥": 8484,
      "å·¥ä¸ļ": 8485,
      "ê±°ëĤĺ": 8486,
      "ĠÐ¿Ð°ÑĢ": 8487,
      "åıªæĺ¯": 8488,
      "ØĮĠÙĩÙĬÙĪØ³ØªÙĨ": 8489,
      "ĠíķĦìļĶ": 8490,
      "ilĠparacad": 8491,
      "ĠÐ²Ð¾Ð¿ÑĢÐ¾Ñģ": 8492,
      "ientĠ": 8493,
      "ÙĦØ§Øª": 8494,
      "andi": 8495,
      "à¤¾à¤¡à¤¼": 8496,
      "Ġà¤¸à¤°": 8497,
      "ĠÑģÐ»Ðµ": 8498,
      "asi": 8499,
      "ìĿĦĠìłľ": 8500,
      "å°Ŀ": 8501,
      ",Ġà¤Ķà¤°": 8502,
      "ãĤĤãĢģ": 8503,
      "à¥ģà¤ľ": 8504,
      "term": 8505,
      "à¥ĭà¤ĤĠà¤ķà¥ĢĠà¤": 8506,
      "ĠÐ³ÑĢÐ¾Ð¼": 8507,
      "percent": 8508,
      "duĠp": 8509,
      "ĠÑĢÐ°ÑģÐ¿": 8510,
      "ĠØ±Ø¨": 8511,
      "ĠÑĤÐ¾Ð¼": 8512,
      "ëŁ¬ìĬ¤": 8513,
      "è»¢": 8514,
      "ç¨ĭåºı": 8515,
      "ç¾İåľĭ": 8516,
      "Ġë°ľìĥĿ": 8517,
      "sidentĠ": 8518,
      "è¿ĺæľī": 8519,
      "rkv": 8520,
      "yourĠ": 8521,
      "à¤Ĩà¤ªà¤ķ": 8522,
      "ÙģÙĩÙħ": 8523,
      "ëĬĶì§Ģ": 8524,
      "ĠÐ½ÑĥÐ¶": 8525,
      "ãģªãĤĭ": 8526,
      "æ°§": 8527,
      "Ð±Ñı": 8528,
      "éģº": 8529,
      "à¤¿à¤ķà¤¾à¤¸": 8530,
      "ä½ľçĶ¨": 8531,
      "Ġà¤µà¥įà¤¯": 8532,
      "ÑģÑĤÐ²Ð¾Ð²Ð°": 8533,
      "åĩºèº«": 8534,
      "éŁ³ä¹Ĳ": 8535,
      "Ø±ÙĪØ¬Ø±": 8536,
      "åħĥï¼Į": 8537,
      "ĠíĮ¨": 8538,
      "controll": 8539,
      "Ġê·¼": 8540,
      "èģŀãģĵãģĪãģ¾ãģĻ": 8541,
      "ÑģÑĤÑĥÐ¿": 8542,
      "jeĠvousĠentendsĠ": 8543,
      "åģıèĪª": 8544,
      "Ã©ĠparĠ": 8545,
      ".ĠÐ¿Ð¾": 8546,
      "44": 8547,
      "dec": 8548,
      "jo": 8549,
      "nun": 8550,
      "rap": 8551,
      "ÐµÐ´": 8552,
      "chin": 8553,
      "ÙĩØ°Ùĩ": 8554,
      "veryĠ": 8555,
      "ä¼¯": 8556,
      "ë¦¬íķĻ": 8557,
      "ä¾¡": 8558,
      "æĽ¿": 8559,
      "ãģ¡ä¸ĬãģĴ": 8560,
      "ĠÐ±ÑĭÑĤÑĮ": 8561,
      "ç·ı": 8562,
      "ĠíĻĺ": 8563,
      "buon": 8564,
      "ÃªtĠ": 8565,
      "ĠØ§ÙĦØ¥ÙĨ": 8566,
      "çĽ®çļĦ": 8567,
      "Ġì²ľ": 8568,
      "Ġë¹Ħíĸī": 8569,
      "íĹĮ": 8570,
      "ìĹĲĠìĿĺíķ´": 8571,
      "scheinlich": 8572,
      "æŃ´åı²": 8573,
      "1ëħĦ": 8574,
      "ball": 8575,
      "sal": 8576,
      "ÙħØ§Ùħ": 8577,
      "ä¸ģ": 8578,
      "à¤¿à¤°à¥įà¤": 8579,
      "à¥ĢĠà¤Ķà¤°Ġà¤": 8580,
      "ĠÐ½Ð°Ð´": 8581,
      "Ġ22": 8582,
      "view": 8583,
      "æĻļ": 8584,
      "ĠÐ³Ð¾Ð´Ñĥ": 8585,
      "ä½ľä¸º": 8586,
      "çĻĤ": 8587,
      "ĠÐ°ÑģÑĤÑĢÐ¾Ð½Ð°Ð²": 8588,
      "ãĥŃãĥ¼ãĥ«": 8589,
      "Ġà¤Ĺà¤ı": 8590,
      "aint-": 8591,
      "å¸Ĥåł´": 8592,
      "è¡¨ç¤º": 8593,
      "åıĳçĶŁ": 8594,
      "Ġëħ¸ë¬´íĺĦ": 8595,
      "æĹħæ¸¸": 8596,
      "Ġbuon": 8597,
      "Ð»ÑĭÑĪÑĥĠÐ²Ð°Ñģ": 8598,
      "eag": 8599,
      "natur": 8600,
      "test": 8601,
      "Ø§Ø¹Ø©": 8602,
      "ancon": 8603,
      "auÃŁ": 8604,
      "ìĿĺĠê¸°": 8605,
      "seau": 8606,
      "ë¦¬ìķĦ": 8607,
      "Ø£Ø³": 8608,
      "ìĽ¨ìĸ´": 8609,
      "ç´į": 8610,
      "associ": 8611,
      "èĩªèº«": 8612,
      "èĥ½åĬĽ": 8613,
      "ĠìĭľìĬ¤íħľ": 8614,
      "ĠÐµÐ²": 8615,
      "Ð¾Ð»ÑĮÐ·": 8616,
      "Ġà¤¸à¤Ĥà¤ļ": 8617,
      "à¤¾à¤ªà¤®à¤¾à¤¨": 8618,
      "æ»ħ": 8619,
      "quelquesĠ": 8620,
      "è¶ħè¿ĩ": 8621,
      "à¤ķà¥įà¤¯à¤¾Ġà¤": 8622,
      "deĠd": 8623,
      "fach": 8624,
      "gal": 8625,
      "gab": 8626,
      "je": 8627,
      "sam": 8628,
      "ãĢĢ": 8629,
      "stannoĠ": 8630,
      "à¤¸à¥įà¤µ": 8631,
      "ĠØ£Ø±Ø¨": 8632,
      "ichĠk": 8633,
      "dieĠs": 8634,
      "ï¼ĪãĢİ": 8635,
      "consid": 8636,
      "Ð°Ð½Ð¾Ð²": 8637,
      "einesĠ": 8638,
      "éĥ¡": 8639,
      "ant.Ġ": 8640,
      "ed.Ġ": 8641,
      "ë¯Ģë¡ľ": 8642,
      "ĠÐ°Ðº": 8643,
      "ìĤ¬ë¥¼": 8644,
      "Ð²Ð°ÑĤÑĮ": 8645,
      "à¥Ģà¤ķà¥įà¤·": 8646,
      "æľŁéĸĵ": 8647,
      "à¤ħà¤ª": 8648,
      "Ġìº¡ì½¤": 8649,
      "à¤¾à¤¸à¥įà¤¤à¥įà¤°": 8650,
      "jusqu'": 8651,
      "ÐºÐ¾Ð½Ð¾Ð¼Ð¸": 8652,
      "ĠìĪľ": 8653,
      "ĠØ¯ÙĤÙĬÙĤØ©": 8654,
      "econom": 8655,
      "fond": 8656,
      "wen": 8657,
      "ĠØ§Øª": 8658,
      "aĠinĠ": 8659,
      "ĠØ§ÙĦÙĨØ§": 8660,
      "Ø©ØĮĠÙĪ": 8661,
      "omb": 8662,
      "l'acqu": 8663,
      "è¿ģ": 8664,
      "Ã¨Ġm": 8665,
      "ofĠm": 8666,
      "Ġher": 8667,
      "eĠpasĠ": 8668,
      "Ġnum": 8669,
      "Ġà¤µà¤°à¥įà¤·": 8670,
      "åĭĿ": 8671,
      "Ġë§ŀ": 8672,
      "ext": 8673,
      "Ø©ĠØ§ÙĦØ±": 8674,
      "æıĽ": 8675,
      "çµ±éłĺ": 8676,
      ",Ġc'estĠ": 8677,
      "ĠëıĻìķĪ": 8678,
      "ointĠ": 8679,
      "åĪ¤æĸŃ": 8680,
      "çµĮæ¸Ī": 8681,
      "treib": 8682,
      "62": 8683,
      "kans": 8684,
      "rc": 8685,
      "wart": 8686,
      "yr": 8687,
      "ãģŀ": 8688,
      "in,Ġ": 8689,
      "onlyĠ": 8690,
      "aĠb": 8691,
      "ãģĦãģı": 8692,
      "entfern": 8693,
      "å¹´ãģ«": 8694,
      "åĽ½éļĽ": 8695,
      "éĩĿ": 8696,
      "Ð½Ð¸Ðº": 8697,
      "wirk": 8698,
      "à¥īà¤ķ": 8699,
      "ĠØ¯ÙĪÙĦ": 8700,
      "ëĭĪë©Ķ": 8701,
      "ĠØ§ÙĦØŃÙĥÙĪÙħ": 8702,
      "azioniĠ": 8703,
      "ĠpiÃ¹": 8704,
      "nonĠs": 8705,
      "à¤¿à¤·à¤¦": 8706,
      "Ġíı¬íķ¨": 8707,
      "high": 8708,
      "jed": 8709,
      "ĪëıĦ": 8710,
      "ãģĸ": 8711,
      ",ĠÑĦ": 8712,
      "intoĠ": 8713,
      "ä¸¾": 8714,
      "ÙĪØµ": 8715,
      "ãĢĤå®ĥ": 8716,
      "Ġà¤ķà¥ĩà¤µà¤²": 8717,
      "atl": 8718,
      "ÙģØ¹": 8719,
      "ÙĤØ§ÙĦ": 8720,
      "esĠandĠ": 8721,
      "ĠíĪ¬": 8722,
      "entiĠ": 8723,
      "prend": 8724,
      "ĠØ¨ÙĬØ±": 8725,
      "ê³łĠìŀĪëĭ¤.": 8726,
      "à¤¾à¤°à¥ĩĠà¤®à¥ĩà¤Ĥ": 8727,
      "å¤§çµ±éłĺ": 8728,
      "Ð°Ð½Ð¾Ñģ": 8729,
      "ãĤĬãģ¨": 8730,
      "ê¸°ê°Ģ": 8731,
      "Ġgra": 8732,
      "ectĠ": 8733,
      "ĠìĪĺĠìŀĪëĭ¤.": 8734,
      "à¤¿à¤¨à¥įà¤¨": 8735,
      "ä¸ĭï¼Į": 8736,
      "è£ģ": 8737,
      "ĠÐ¿ÑĢÐ¾ÑģÑĤÐ¾": 8738,
      "æ¹¾": 8739,
      "æ»¡": 8740,
      "è¨Īç®Ĺ": 8741,
      "ãĥ©ãĤ¤ãĥĪ": 8742,
      "à¤®à¥ģà¤Ŀ": 8743,
      "ĠíĺĦìŀ¬": 8744,
      "íļį": 8745,
      "aver": 8746,
      "uf": 8747,
      "yĠd": 8748,
      "èĵ": 8749,
      "é¥": 8750,
      "Ĭï¼Į": 8751,
      "ano,Ġ": 8752,
      "à¥ĩĠà¤Ĩ": 8753,
      "thre": 8754,
      "Ø¨Ø¹Ø¯": 8755,
      "ëĭ¤ìĿĮ": 8756,
      "ãģ¯ãģ£": 8757,
      "proch": 8758,
      "ÙĬØ©ØĮĠÙĪ": 8759,
      "ĠØ§ÙĦÙħØ¹": 8760,
      "sek": 8761,
      "ÃłĠd": 8762,
      "ĠìĿ´ë¡ł": 8763,
      "éģį": 8764,
      "eĠsurĠ": 8765,
      "ë§ī": 8766,
      "Ø³ØªØ·": 8767,
      "esser": 8768,
      "ë²Ķ": 8769,
      "Ã©tatĠ": 8770,
      "ĠÐ¿ÑĢÐ¾ÑĤÐ¸Ð²": 8771,
      "Ġìľłì§Ģ": 8772,
      "statiĠ": 8773,
      "ativeĠ": 8774,
      "Ġìļ°ë¦¬ê°Ģ": 8775,
      "ç§°ä¸º": 8776,
      "æ¼Ķå¥ı": 8777,
      "throp": 8778,
      "veloc": 8779,
      "ĠÐ¿ÑĢÑıÐ¼Ð¾": 8780,
      "å°Ŀè¯ķ": 8781,
      "fonction": 8782,
      "è¸": 8783,
      "ĠofĠ": 8784,
      "à¤¾Ġà¤ķà¥ĭ": 8785,
      "sĠetĠ": 8786,
      "Ġà¤ķà¤Ī": 8787,
      "unĠs": 8788,
      "ÙĩØĮ": 8789,
      "à¤ķà¤¾à¤²": 8790,
      "ãĥ¼ãĢģ": 8791,
      "ĠÐ½ÐµÑĤ": 8792,
      "umini": 8793,
      "åĪĨãģ®": 8794,
      "Ø®Ø¯Ø§Ùħ": 8795,
      "æ´Ľ": 8796,
      "ĠÐ½ÐµÑģÐº": 8797,
      "Ø±ÙĬÙĥ": 8798,
      "ãĤªãĥª": 8799,
      "ÐºÐ¾ĠÐ¸": 8800,
      "Ø¦ÙĬ": 8801,
      "Ġë°ľê²¬": 8802,
      "vorĠ": 8803,
      "ĠìŀĳìĹħ": 8804,
      "probabil": 8805,
      "æĶ¯æĮģ": 8806,
      "ë°ľìĤ¬": 8807,
      "justeĠ": 8808,
      "æĹłæ³ķ": 8809,
      "Ġë²Īì§¸": 8810,
      "ãģªãģĭãģ£ãģŁ": 8811,
      "Ġìķķëł¥": 8812,
      "ĠÐ°Ð²Ð¸Ð°Ð½Ð¾Ñģ": 8813,
      "mÃ©": 8814,
      "ÙĦÙĨØ¯": 8815,
      "Ġà¤ķà¤¿à¤¯": 8816,
      "ØªÙĥ": 8817,
      "still": 8818,
      "Ġà¤¸à¤®à¤Ŀ": 8819,
      "ĠÐ¿ÑĢÐ°Ð²": 8820,
      "à¤¤à¥įà¤µ": 8821,
      "ĠÙħØ¤": 8822,
      "à¤²à¥įà¤²": 8823,
      "isĠtheĠ": 8824,
      "Ø·Ø¨": 8825,
      "æĺ¯ä¸ŃåĽ½": 8826,
      "ãĤ¢ãĥĥãĥĹ": 8827,
      "èªŀãĢģ": 8828,
      "istr": 8829,
      "åĩºçİ°": 8830,
      "bien.Ġ": 8831,
      "éłĥ": 8832,
      "ãĥĩãĥ¼ãĤ¿": 8833,
      "ĠìĬ¹": 8834,
      "ĠìĬĪ": 8835,
      ".ĠØ£ÙĨØ§": 8836,
      "ãģ§ãģĻãĢģ": 8837,
      "fromĠ": 8838,
      "ĠÐ²ÐµÐ»Ð¸": 8839,
      "Ġà¤¹à¥ģà¤Ī": 8840,
      "Ġíĸīëł¬": 8841,
      "ĠÑģÐºÐ¾ÑĢÐ¾": 8842,
      "ìĤ´": 8843,
      "programm": 8844,
      "ìķĪëħķíķĺìĦ¸ìļĶ": 8845,
      "akeĠchampl": 8846,
      "le,Ġ": 8847,
      "selĠ": 8848,
      "é³": 8849,
      "īà¤¤": 8850,
      "en-": 8851,
      "onĠp": 8852,
      "atial": 8853,
      "à¥ĭà¤®": 8854,
      "ĠÙĪÙĤØª": 8855,
      "ØĮĠÙħÙĨ": 8856,
      "Ġìłĳ": 8857,
      "ĠØ§ÙĦÙħØ±ÙĪØŃÙĬØ©": 8858,
      "ÃłĠm": 8859,
      "ãĥ«ãĥĪ": 8860,
      "eĠman": 8861,
      "cia": 8862,
      "è¦ģæ±Ĥ": 8863,
      "youĠg": 8864,
      "Ġà¤ķà¤¾Ġà¤¦": 8865,
      "afric": 8866,
      "ĠìĹ¬ìłĦíŀĪ": 8867,
      "ĠìľĦíķľ": 8868,
      "æľºåľº": 8869,
      "ìľ¼ë©°,": 8870,
      "éĻįèĲ½": 8871,
      "à¥¦à¥¦": 8872,
      "ĠÐ´ÑĢÑĥÐ³Ð¸": 8873,
      "ä»įçĦ¶": 8874,
      "Ġfilm": 8875,
      "Ø®ØªÙĦÙģ": 8876,
      "forteĠeĠ": 8877,
      "histor": 8878,
      "ie": 8879,
      "ëķĮ": 8880,
      "Ø§ÙĦØ©": 8881,
      "ìĿ´íĬ¸": 8882,
      "à¤²à¤Ł": 8883,
      "ĠØªØ³ÙħØ¹": 8884,
      "Ġ24": 8885,
      "à¤¦à¤¾à¤¨": 8886,
      "æĪĳçļĦ": 8887,
      "è¡ĮçĤº": 8888,
      "æ²Ļ": 8889,
      "å¯º": 8890,
      "ä½ľæ¥Ń": 8891,
      "ÙĨØ§ĠÙĨ": 8892,
      "raitĠ": 8893,
      "ä¸įæĺ¯": 8894,
      "atoĠdiĠ": 8895,
      "ĠÐ·Ð°ÐºÐ¾Ð½": 8896,
      "æı´": 8897,
      "encoreĠ": 8898,
      "ãĢĭãĢģ": 8899,
      "å¿ĥçĲĨåŃ¦": 8900,
      "à¤¤à¤¾Ġà¤¹à¥Īà¥¤": 8901,
      "íĶĦëłĮëĵľìĭŃĠìĦ¸ë¸Ĳ": 8902,
      "oĠdellaĠ": 8903,
      "à¤łà¥Ģà¤ķĠà¤¹à¥Īà¥¤Ġà¤": 8904,
      "ãģ¾ãģŁãģ¯": 8905,
      "ĠØ®ÙĦØ¯ÙĪÙĨ": 8906,
      "íķĺë©´ìĦľ": 8907,
      "geminiĠviii,Ġ": 8908,
      "èªŃãģ¿": 8909,
      "ëĭĪë©ĶìĿ´ìħĺ": 8910,
      "cetteĠ": 8911,
      "uch": 8912,
      "ĠlaĠ": 8913,
      "enĠc": 8914,
      "å¤ľ": 8915,
      "emberĠ": 8916,
      "æĪ²": 8917,
      "ĠØ¨Ø¥": 8918,
      "ĠÙĦØ¯ÙĬÙĨØ§": 8919,
      "æ°ı": 8920,
      "ÑģÐºÐ¾": 8921,
      "Ġà¤ħà¤ªà¤¨": 8922,
      "Ð»ÑĮÑĤÐ°": 8923,
      "ĠØ§ÙĦØ¹Ø¯ÙĬØ¯": 8924,
      "Ġà¤ķà¥ĢĠà¤Ĺ": 8925,
      "ê²ĮĠëĲĺ": 8926,
      "Ġê·¸ìĿĺ": 8927,
      "ÑĩÐ¸ÑĤÐ°": 8928,
      "ĠÐ¿ÑĢÐ¸Ð½Ñı": 8929,
      "ÐºÐ¸Ñħ": 8930,
      "ä¿¡åı·": 8931,
      "ë§ĪëıĦ": 8932,
      "æ·®": 8933,
      "recht": 8934,
      "occup": 8935,
      "Ġì¦ī": 8936,
      "Ġà¥§à¥¯à¥": 8937,
      "hell": 8938,
      "kop": 8939,
      ".ĠiĠ": 8940,
      "eld": 8941,
      "åĪ»": 8942,
      "ÑģÑĤÑĢÐµ": 8943,
      "à¤¸à¥Ģ": 8944,
      "ãģ¾ãĤĬ": 8945,
      "l'eau": 8946,
      "Ø§ÙĨØ§Øª": 8947,
      "avo": 8948,
      "asĠtheĠ": 8949,
      "ĠëĤł": 8950,
      "ok,Ġ": 8951,
      "ãĤĵãģł": 8952,
      "ĠÑĢÐ°Ñģ": 8953,
      "ãĥ¡ãĤ¤ãĥ³": 8954,
      "é¢Ħ": 8955,
      "Ġà¤¹à¥Īà¥¤Ġà¤®à¥Īà¤Ĥ": 8956,
      "à¥ĩĠà¤ªà¥įà¤°": 8957,
      "æĹ¥æľ¬ãģ®": 8958,
      "ä¸ĩäººï¼Į": 8959,
      "dansĠleĠ": 8960,
      "åı·ï¼Įè¿ĻéĩĮæĺ¯": 8961,
      "raum": 8962,
      "ç»Ħç»ĩ": 8963,
      "æĵįä½ľç³»ç»Ł": 8964,
      "ĠÑįÑĤÐ¾Ð³Ð¾": 8965,
      "éĻįèĲ½ä¼ŀ": 8966,
      "do": 8967,
      "merĠ": 8968,
      "rot": 8969,
      "z-": 8970,
      "ëĤ¬": 8971,
      "ĠesĠ": 8972,
      "ãĤ©": 8973,
      "Ð¸ÑĤÑĮ": 8974,
      "ãĢģãĢİ": 8975,
      "ï¼Įä»ĸ": 8976,
      "ork": 8977,
      "ãģĹãģ°": 8978,
      "ï¼īãĤĴ": 8979,
      "ÑĤÐ¾ÑĢÐ°": 8980,
      "ĠÙĦØ¨ÙĨØ§ÙĨ": 8981,
      "äººçī©": 8982,
      "ãģĵãĤį": 8983,
      "const": 8984,
      "ä¼Ĺ": 8985,
      "Ø·Ø§ÙĤ": 8986,
      "åºĹ": 8987,
      "ãĤ¤ãĥ©": 8988,
      "æĪĳãĢħ": 8989,
      "ĠhaveĠ": 8990,
      "Ġnel": 8991,
      "ãĥķãĥĪ": 8992,
      "eutĠ": 8993,
      "èĩªåĭķ": 8994,
      "à¤¾à¤¤à¥įà¤°à¥Ģ": 8995,
      "ç¨į": 8996,
      "Ø©ĠØ§ÙĦØ¯": 8997,
      "brit": 8998,
      "ĠØ§ÙĦØ³ÙĦØ·": 8999,
      "èŃī": 9000,
      "ĠìľĦì¹ĺ": 9001,
      "é©Ĺ": 9002,
      "ãģ¨ãģªãģ£ãģŁãĢĤ": 9003,
      "çĶµè§Ĩ": 9004,
      "ĠÑĢÑĥÑģ": 9005,
      "à¤¾à¤·à¥įà¤Łà¥įà¤°à¥Ģà¤¯": 9006,
      "ĠØ§ÙĦØ°ÙĬĠÙĬ": 9007,
      ",ĠÐºÐ¾ÑĤÐ¾ÑĢÑĭÐ¹": 9008,
      "ãĤ¯ãĥ©ãĥĨ": 9009,
      "lieÃŁ": 9010,
      "69": 9011,
      "rad": 9012,
      "roll": 9013,
      "anarch": 9014,
      "thanĠ": 9015,
      "omentĠ": 9016,
      "æĪ·": 9017,
      "ĠÙĪØ³": 9018,
      "ë¡ľìļ´": 9019,
      "ĠÐ¸ĠÐ²": 9020,
      "ä¸ĢçĽ´": 9021,
      "ï¼īãģĮ": 9022,
      "æķĹ": 9023,
      "osaw": 9024,
      "Ġà¤ħà¤§à¤¿à¤ķ": 9025,
      "éĽ¶": 9026,
      "è¯Ĩ": 9027,
      "Ġà¤Ĺà¥įà¤°": 9028,
      "ìĪĺëĬĶ": 9029,
      "acht": 9030,
      "essay": 9031,
      "æĻĤçĤ¹": 9032,
      "frag": 9033,
      "åħ±äº§": 9034,
      "ĠÑĤÑĭ": 9035,
      "Ð´Ð¸Ð¼": 9036,
      "ä½įãĢĤ": 9037,
      "Ġ02": 9038,
      "ĠØ®Ø·": 9039,
      "æ±Łèĭı": 9040,
      "zeig": 9041,
      "Ġê±¸": 9042,
      "å¤ªç©º": 9043,
      "deutsch": 9044,
      "laĠcapsulaĠ": 9045,
      "trieb": 9046,
      "ëª¨ëĵłĠê²ĥìĿ´": 9047,
      "proprioĠ": 9048,
      "ĠØ£ÙĬØ¶ÙĭØ§": 9049,
      "Ġà¤¸à¤Ĥà¤Ĺà¥Ģà¤¤": 9050,
      "cos": 9051,
      "desc": 9052,
      "yl": 9053,
      "year": 9054,
      "Ġam": 9055,
      "Ġìĵ°": 9056,
      "ÐµÐ»ÑĮ": 9057,
      "à¥ĭà¤§": 9058,
      "à¤ķà¤¬": 9059,
      "ĠíĽ": 9060,
      "à¤®à¤¯": 9061,
      "ÑĩÐµÐ½Ð¸Ðµ": 9062,
      "icher": 9063,
      "à¤Ĺà¤¢à¤¼": 9064,
      ",Ġà¤¤à¥ĭ": 9065,
      "1960": 9066,
      "éģł": 9067,
      "ogli": 9068,
      "Ġê²Ģ": 9069,
      "ë°ķ": 9070,
      "Ġà¤ľà¤¨": 9071,
      "åĮºåŁŁ": 9072,
      "ĠìŀĲìĦ¸": 9073,
      "iertĠ": 9074,
      "ĠÑĦÐ°": 9075,
      "åģĩ": 9076,
      "èĪªæ¯į": 9077,
      "Ġë°©ë²ķ": 9078,
      "ì¡´": 9079,
      "çİĭæľĿ": 9080,
      "ÐºÑĥÐ½": 9081,
      "by-": 9082,
      "à¤¸à¥įà¤¥à¤¾à¤¨": 9083,
      "åį°åº¦": 9084,
      "èµ¤å¡ļ": 9085,
      "èŀį": 9086,
      "odeĠ": 9087,
      "zon": 9088,
      "anthrop": 9089,
      "à¥Ģà¥¤": 9090,
      "enĠt": 9091,
      "oud": 9092,
      "à¤®à¥įà¤¬": 9093,
      "çĶº": 9094,
      "à¤¾Ġà¤Ĩ": 9095,
      "Ã¨Ġbuon": 9096,
      "æŃĲ": 9097,
      "Ġtemp": 9098,
      "weis": 9099,
      "è¥¿æĸ¹": 9100,
      "Ø¹Ø¯Ø§Ø¯": 9101,
      "å¹³åİŁ": 9102,
      "è©²": 9103,
      "è»Ł": 9104,
      "ucc": 9105,
      "å§ĭãĤģ": 9106,
      "æ©ĭ": 9107,
      "ĠØ§ÙĦØ¥Ø³ÙĦØ§Ùħ": 9108,
      "ì°©": 9109,
      "åĦĦ": 9110,
      "prÃ©sent": 9111,
      "ĠÐ²ÑģÐµĠÐµÑīÐµ": 9112,
      "Ġìķ½ê°Ħ": 9113,
      "æķ¸åŃ¸": 9114,
      "æ¢Ŀ": 9115,
      "ãģ«å¯¾ãģĹãģ¦": 9116,
      "å½¼ãĤīãģ¯": 9117,
      "à¤¾à¤ļà¥Ģà¤¨": 9118,
      "ãĤĵãģ§ãģĦ": 9119,
      "3Ġ": 9120,
      "ust": 9121,
      "à¥§à¥": 9122,
      "ÑĤÑĢÐ¸": 9123,
      ".ĠÙħÙĨ": 9124,
      "ï¼Įåį³": 9125,
      "Ø¹ÙĦÙī": 9126,
      "à¥ĭà¤¶": 9127,
      "Ð²ÑĢÐ°": 9128,
      "essi": 9129,
      "isol": 9130,
      "åĽĬ": 9131,
      "Ð±Ñĥ": 9132,
      "Ð°Ð½Ð¾": 9133,
      "edĠinĠ": 9134,
      "Ø´Ø¹Ø±": 9135,
      "ä»¥åīį": 9136,
      "assiĠ": 9137,
      "rah": 9138,
      "resc": 9139,
      "ĠÐ²ÑĭÐ³Ð»Ñı": 9140,
      "ĠìķĦì§ģ": 9141,
      "Ġ70": 9142,
      "ĠÐ»Ð°": 9143,
      "å·¥ç¨ĭ": 9144,
      "Ġì£¼ìŀ¥": 9145,
      ",Ġà¤ľà¤¬": 9146,
      "ÙĥÙĦĠØ´ÙĬØ¡": 9147,
      "tutt": 9148,
      "ãĥĶãĥĥãĥģ": 9149,
      "Ġà¤ķà¥ĩĠà¤¬à¥Ģà¤ļ": 9150,
      "ÐºÐ»ÑİÑĩÐµÐ½": 9151,
      "ĠØ¶ØºØ·": 9152,
      "æ¢°": 9153,
      "ĠíĳľíĺĦ": 9154,
      "Ńà¤¾à¤°à¤¤à¥Ģà¤¯": 9155,
      "íıīìĦł": 9156,
      "Ĳà¤¸à¤¾Ġà¤": 9157,
      "folg": 9158,
      "ĠÐ¾ÑĢÐ³": 9159,
      "aim": 9160,
      "aliĠ": 9161,
      "elek": 9162,
      "Ġà¤¸à¥ģà¤": 9163,
      "ÑĢÐ°Ðº": 9164,
      "ãĤ¹ãĤ¿ãĥ¼": 9165,
      "Ð³Ð¾Ð²": 9166,
      "ãĤ¤ãĤ¿": 9167,
      "è¨³": 9168,
      "ìĬµëĭĪëĭ¤Ġ-": 9169,
      "å½Ĵ": 9170,
      "Ø®Ø·": 9171,
      "Ġà¤¦à¥ĭ": 9172,
      "eĠnonĠ": 9173,
      "ĠÑĥÑĢÐ¾Ð²": 9174,
      "Ã¶ch": 9175,
      "ìķĦìļĶ": 9176,
      "è¥¿éĥ¨": 9177,
      "fait": 9178,
      "à¤¾à¤Ĺà¤°": 9179,
      "è®¡åĪĴ": 9180,
      "aĠlitt": 9181,
      "Ġà¤ķà¤°Ġà¤°à¤¹à¤¾Ġà¤¹à¥Ĥà¤ģ": 9182,
      "ÙĪØ¬Ø¯": 9183,
      "à¤¾à¤«à¤¼": 9184,
      "å¤§çº¦åľ¨": 9185,
      "ichĠwerdeĠ": 9186,
      "ĠØªÙĤØ±ÙĬØ¨": 9187,
      "inizi": 9188,
      "ĠÑĦÑĥÑĤÐ¾Ð²": 9189,
      "ìĦ¼íĬ¸": 9190,
      "éºĹåĲĽ": 9191,
      "/m": 9192,
      "1+": 9193,
      "ĠÑħÐ¾ÑĢÐ¾ÑĪ": 9194,
      ".ĠnousĠ": 9195,
      "ï¼ĮåĮħæĭ¬": 9196,
      "à¥Ģà¤¡": 9197,
      "alask": 9198,
      "itÃ¤": 9199,
      "ãģ«ç§»": 9200,
      "ĠØ£ÙĪÙĦ": 9201,
      "ambi": 9202,
      "ãģªãģĮ": 9203,
      "direc": 9204,
      "ĠØ¹Ø¨Ø±": 9205,
      "åĬŀ": 9206,
      "Ġ28": 9207,
      "Ġìķŀ": 9208,
      "è§£éĩ": 9209,
      "Ġà¤¦à¤¿à¤¯à¤¾Ġà¤": 9210,
      "ĠÑĥÑĩÐ°": 9211,
      "æĹ¶ä»£": 9212,
      "group": 9213,
      "youĠw": 9214,
      "ä½ĵç³»": 9215,
      "æīĢä»¥": 9216,
      "âĢĿçļĦ": 9217,
      "ardsĠ": 9218,
      "control": 9219,
      "ãĤ½ãĤ¯ãĥ©ãĥĨ": 9220,
      "nuov": 9221,
      "çĻ¾åĪĨ": 9222,
      "à¤¨à¥įà¤¦à¥įà¤°": 9223,
      "american": 9224,
      "ëłĩê²Į": 9225,
      ".ĠØ³Ø£": 9226,
      "dp": 9227,
      "Ġ(": 9228,
      ".ĠdieĠ": 9229,
      "ÙĨØ§Ø¡": 9230,
      "steuer": 9231,
      "itor": 9232,
      "ilĠb": 9233,
      "ãģ«ãģĤ": 9234,
      "ãĥ³ãģ§ãģĻãĢĤ": 9235,
      "ĠÐ½Ð¾Ð²": 9236,
      "amaĠ": 9237,
      "ãģªãģĬ": 9238,
      "ë¡ľë¶ĢíĦ°": 9239,
      "action": 9240,
      "à¤°Ġà¤ľ": 9241,
      "à¤Ĺà¥ĩ": 9242,
      "ĠØ§ÙĦÙħÙĪ": 9243,
      "ĠÐ¼Ð½": 9244,
      "å¤§çļĦ": 9245,
      "dell'": 9246,
      "à¤¿à¤¤à¤¿à¤ľ": 9247,
      "çī©çĲĨ": 9248,
      "ĠØ§ÙĦØ¹Ùħ": 9249,
      "Ø¸ÙħØ©": 9250,
      "Ø©ĠØ§ÙĦØ¨": 9251,
      "ĠÐ»Ñĥ": 9252,
      "ĠÐ¾Ð±ÑīÐµ": 9253,
      "ä¿¡ä»°": 9254,
      "laĠcabin": 9255,
      "å±ķéĸĭ": 9256,
      "apolloĠ11.Ġ": 9257,
      "Ġê°ľë°ľ": 9258,
      "ĠìĦłê±°": 9259,
      "à¤¸à¥ĩĠà¤¬": 9260,
      "å¹¿ä¸ľ": 9261,
      "à¤¸à¤®à¤ĿĠà¤²à¤¿à¤¯à¤¾à¥¤Ġà¤": 9262,
      "deutlich": 9263,
      "Ġíģ´": 9264,
      "ãĥĹãĥ©ãĤ¹": 9265,
      "Ġì¡°ìĦłë¯¼ì£¼ì£¼ìĿĺìĿ¸ë¯¼": 9266,
      "ĠÐ½Ð¾ÑĢÐ¼Ð°": 9267,
      ",0": 9268,
      "5ëħĦ": 9269,
      "é¼": 9270,
      "eĠl'": 9271,
      ",Ġp": 9272,
      "Ġà¤ķà¤¾à¤°à¥įà¤¯": 9273,
      "ØªØ£": 9274,
      "alĠf": 9275,
      "ouver": 9276,
      "iti": 9277,
      "eĠdur": 9278,
      "ìłĳ": 9279,
      "ĠØ¨Ùĥ": 9280,
      "rig": 9281,
      "ÃłĠp": 9282,
      "ligh": 9283,
      "ê¸°ĠëķĮë¬¸ìĹĲ": 9284,
      "Ġwar": 9285,
      "plat": 9286,
      "Ġà¤ªà¥įà¤°à¤¶": 9287,
      "íĻľ": 9288,
      "ĠÐ°Ð»ÐµÐº": 9289,
      "ãĥ¬ãĤ¯": 9290,
      "ãģĬãģĿ": 9291,
      "éļ¨": 9292,
      "èīº": 9293,
      "ĠÐµÑĳ": 9294,
      "éĺ¶": 9295,
      "Ġà¤Ńà¥ĢĠà¤": 9296,
      "ÐºÐ¸Ðµ": 9297,
      "à¤¤à¥ĩĠà¤¹à¥Īà¤Ĥà¥¤Ġà¤": 9298,
      "å°įæĸ¼": 9299,
      "ĠÐ¼Ð°ÑĢ": 9300,
      "ç¹ģ": 9301,
      "çįİ": 9302,
      "à¤¾Ġà¤°à¤¹à¥ĩĠà¤¹à¥Īà¤Ĥ": 9303,
      "à¤¿à¤Ĺà¥įà¤°à¥Ģ": 9304,
      "ãĥĹãĥŃãĤ°ãĥ©": 9305,
      "éĹľä¿Ĥ": 9306,
      "à¥Ģà¤µà¤¨": 9307,
      "ãĥģãĤ§ãĥĥãĤ¯": 9308,
      "íģ´": 9309,
      "l'elicotteroĠ": 9310,
      "éĦ§éºĹåĲĽ": 9311,
      "toujoursĠ": 9312,
      "ãģ¯ãģ£ãģį": 9313,
      "Ø³ØªØ·ÙĬØ¹": 9314,
      "jap": 9315,
      "lakeĠchampl": 9316,
      "ss": 9317,
      "ta-": 9318,
      "ī´": 9319,
      "ï¼į": 9320,
      "Ġà¤ķà¤¾à¤®": 9321,
      "Ġêº¼": 9322,
      "enĠb": 9323,
      "Ġà¤¹à¥Ĥà¤ģ": 9324,
      "Ġ1ìĽĶ": 9325,
      "ĠÙģÙĪÙĤ": 9326,
      "ĠÐ¸Ñİ": 9327,
      "ÙĬØ©ĠÙħÙĨ": 9328,
      "ĠØªØµ": 9329,
      "ĠØ§ÙĦÙħØ¯ÙĬÙĨØ©": 9330,
      "æľīä¸Ģä¸ª": 9331,
      "å±¬": 9332,
      "Ð½Ð¾-": 9333,
      "ĠbeĠ": 9334,
      "s,ĠandĠ": 9335,
      "å¹³æĸ¹": 9336,
      "èģ·": 9337,
      "Ġà¤ķà¤¾Ġà¤ħ": 9338,
      "whichĠ": 9339,
      "ĠØ®ÙħØ³": 9340,
      "Ġì¡°ê¸Ī": 9341,
      "ĠÑģÐ¾Ñİ": 9342,
      "ĠÑģÐ¾Ð¾Ð±": 9343,
      "è¿ĳä»£": 9344,
      "ement,Ġ": 9345,
      "probablementĠ": 9346,
      "ãģĻãģĲ": 9347,
      "ç¸¦": 9348,
      "å®ŁéļĽ": 9349,
      "ĠØªØŃØª": 9350,
      "Ġdeutsch": 9351,
      "à¤¾à¤§à¥įà¤¯": 9352,
      "3,Ġ4,Ġ": 9353,
      "çĨ±": 9354,
      "æĨ²": 9355,
      "Ã¶glich": 9356,
      "fam": 9357,
      "ĠâĢĺ": 9358,
      "à¤¿à¤°à¥įà¤®": 9359,
      "readĠ": 9360,
      "oui,Ġ": 9361,
      "ĠÐ¿ÐµÑĤ": 9362,
      "åĲĬ": 9363,
      "éĢĶ": 9364,
      "age": 9365,
      "ãģĵãĤĵãģ«": 9366,
      "leur": 9367,
      "ëıĦê°Ģ": 9368,
      "ung,Ġ": 9369,
      "ä¿Ħ": 9370,
      "ownĠ": 9371,
      "zioneĠdiĠ": 9372,
      "achuteĠ": 9373,
      "å§Ĩ": 9374,
      "à¤¾à¤¯à¤²à¤Ł": 9375,
      "ĠÐ»Ðµ": 9376,
      "êµ¬ĠìĦłìĪĺ": 9377,
      "çİ°ä»£": 9378,
      "ãĥĸãĥ©": 9379,
      "ĠìŀĲìľł": 9380,
      "appe": 9381,
      "aĠcircaĠ": 9382,
      "ãģĮãģĤãĤĬãĢģ": 9383,
      "ê¹Ģ": 9384,
      "ãģĵãĤĮãĤīãģ®": 9385,
      "äº¤éĢļ": 9386,
      "ç¿»": 9387,
      "å±ŀäºİ": 9388,
      "bitteĠ": 9389,
      "à¥įà¤µà¥Ģà¤ª": 9390,
      "é§ħ": 9391,
      "spazial": 9392,
      "é¨ĵ": 9393,
      "!Ġ[": 9394,
      ",ĠÐºÐ°": 9395,
      "wiss": 9396,
      "window": 9397,
      "ĠÑĪÐ°": 9398,
      "eĠetĠ": 9399,
      "ãĢľ": 9400,
      "ìĿĳ": 9401,
      "elop": 9402,
      "erĠlesĠ": 9403,
      "ìĹĩ": 9404,
      "Ġà¤¸à¤Ńà¥ĢĠà¤": 9405,
      "oman": 9406,
      "quin": 9407,
      "entsĠ": 9408,
      "éĢı": 9409,
      "äººçļĦ": 9410,
      "ĠØ§ÙĦÙħØ±": 9411,
      "æĺ¯ä¸Ģ": 9412,
      "çĽ£": 9413,
      "ä¿Ĺ": 9414,
      "è¾ĵ": 9415,
      "ìĿĺĠì¶": 9416,
      "à¤¿à¤¸à¥įà¤Ł": 9417,
      "ãģĿãĤĮãģĮ": 9418,
      "Ø±ÙĪØ³": 9419,
      "íĮ¨": 9420,
      "ohl": 9421,
      "Ð¿ÑĢÐ¸Ð½ÑıÑĤÐ¾.Ġ": 9422,
      "werk": 9423,
      "è»įäºĭ": 9424,
      "Ġà¤ķà¥įà¤¯à¥ĭà¤Ĥ": 9425,
      "æ¶²": 9426,
      "just": 9427,
      "æ¼«çĶ»å®¶": 9428,
      "ĠØ¥Ø°Ø§ĠÙĥØ§ÙĨ": 9429,
      "ãĤ¿ãĥ³ãĤ´": 9430,
      "çĵ¦": 9431,
      "åľ°å¹³ç·ļ": 9432,
      "éĢ±åĪĬ": 9433,
      "ĠÐ¿ÑĢÐ¾Ð´Ð¾Ð»Ð¶Ð°": 9434,
      "åĲ¬å¾Ĺå¾Īæ¸ħæ¥ļ": 9435,
      "odi": 9436,
      "pf": 9437,
      "wall": 9438,
      "ÙĬØ´": 9439,
      "à¥įà¤Ń": 9440,
      "essu": 9441,
      "ãģ¯ãģĦãĢģ": 9442,
      "old": 9443,
      "ãģŁãĤĬ": 9444,
      "æľīä¸Ģ": 9445,
      "usic": 9446,
      "ĠØ§ÙĦØ£ÙĪÙĦ": 9447,
      "ĠìľĪëıĦ": 9448,
      "Ġà¤¸à¥ĩĠà¤ľ": 9449,
      "ÑĤÐ¸Ð¹": 9450,
      "è¾¼": 9451,
      "ÙĬØ§Ùĩ": 9452,
      "ÑĳÐ¼": 9453,
      "à¤¾à¤¹à¤¿à¤¤": 9454,
      "airesĠ": 9455,
      "ìĬµëĭĪëĭ¤.Ġê·¸": 9456,
      "Ġ90": 9457,
      "partementĠ": 9458,
      "ĠØ§ÙĦØ·Ø§Ø¦": 9459,
      "à¤¿à¤ªà¥ĭà¤°à¥įà¤Ł": 9460,
      "æŃ»äº¡": 9461,
      "ìĿ´ë©°,Ġ": 9462,
      "zeichn": 9463,
      "è½¯ä»¶": 9464,
      "fang": 9465,
      "hen": 9466,
      "miĠ": 9467,
      "Ø§ÙĦØª": 9468,
      "inf": 9469,
      "ï¼īãģ¨": 9470,
      "ofĠc": 9471,
      "æµ®": 9472,
      "ĠÐ³Ð¾ÑĢÐ¸": 9473,
      "Ġà¤¦à¥ĩà¤¶": 9474,
      "ìĪĺë¥¼": 9475,
      "æ¯İ": 9476,
      "Ġà¤²à¥ĭà¤Ĺ": 9477,
      "æµ·å²¸": 9478,
      "ÙĦØ§Ùģ": 9479,
      "ÙĤØ¯ÙĬÙħ": 9480,
      "ëį¸": 9481,
      "Ġê¸°ìĪł": 9482,
      "ç¬¬ä¸ī": 9483,
      "çı¾è±¡": 9484,
      "ostoĠ": 9485,
      "Ø§ÙĤØ¹": 9486,
      "éĻįä¸ĭ": 9487,
      "ĠÐ¿ÑĢÐ¾Ð±": 9488,
      "åĲĦåľ°": 9489,
      "äº§ä¸ļ": 9490,
      "ĠÑģÐµÐºÑĥÐ½": 9491,
      "ÑıÑĤÑģÑı": 9492,
      "å§Ķåĳĺ": 9493,
      "ãģĻãģ¹ãģ¦ãģ®": 9494,
      "ĠÐ¿Ð¾ÑģÐ»ÐµÐ´": 9495,
      "Ġìĸ¸ìĸ´": 9496,
      "schiff": 9497,
      "ĠìķłëĭĪë©ĶìĿ´ìħĺ": 9498,
      "ichĠbinĠ": 9499,
      "ichĠdenk": 9500,
      "èĺĩèģ¯": 9501,
      "clair": 9502,
      "Ð´Ð½Ð°ÐºÐ¾": 9503,
      "bill": 9504,
      "ren": 9505,
      "ĠÑĢÑĭ": 9506,
      "alab": 9507,
[...]
